/* AtmosAI — Modèle H+1 embarqué — généré automatiquement */
#pragma once

/* Taille : 8352 bytes (8.2 Ko) */
/* Features : 13 | Classes : Clair/Pluie/Brouillard */

const unsigned int meteo_h1_model_len = 8352;

const unsigned char meteo_h1_model[] = {
  0x20, 0x00, 0x00, 0x00, 0x54, 0x46, 0x4c, 0x33, 0x00, 0x00, 0x00, 0x00, 0x14, 0x00, 0x20, 0x00,
  0x1c, 0x00, 0x18, 0x00, 0x14, 0x00, 0x10, 0x00, 0x0c, 0x00, 0x00, 0x00, 0x08, 0x00, 0x04, 0x00,
  0x14, 0x00, 0x00, 0x00, 0x1c, 0x00, 0x00, 0x00, 0x98, 0x00, 0x00, 0x00, 0xf0, 0x00, 0x00, 0x00,
  0xc4, 0x16, 0x00, 0x00, 0xd4, 0x16, 0x00, 0x00, 0x28, 0x20, 0x00, 0x00, 0x03, 0x00, 0x00, 0x00,
  0x01, 0x00, 0x00, 0x00, 0x10, 0x00, 0x00, 0x00, 0x00, 0x00, 0x0a, 0x00, 0x10, 0x00, 0x0c, 0x00,
  0x08, 0x00, 0x04, 0x00, 0x0a, 0x00, 0x00, 0x00, 0x0c, 0x00, 0x00, 0x00, 0x1c, 0x00, 0x00, 0x00,
  0x3c, 0x00, 0x00, 0x00, 0x0f, 0x00, 0x00, 0x00, 0x73, 0x65, 0x72, 0x76, 0x69, 0x6e, 0x67, 0x5f,
  0x64, 0x65, 0x66, 0x61, 0x75, 0x6c, 0x74, 0x00, 0x01, 0x00, 0x00, 0x00, 0x04, 0x00, 0x00, 0x00,
  0x90, 0xff, 0xff, 0xff, 0x0d, 0x00, 0x00, 0x00, 0x04, 0x00, 0x00, 0x00, 0x08, 0x00, 0x00, 0x00,
  0x6f, 0x75, 0x74, 0x70, 0x75, 0x74, 0x5f, 0x30, 0x00, 0x00, 0x00, 0x00, 0x01, 0x00, 0x00, 0x00,
  0x04, 0x00, 0x00, 0x00, 0x1e, 0xe9, 0xff, 0xff, 0x04, 0x00, 0x00, 0x00, 0x0c, 0x00, 0x00, 0x00,
  0x6b, 0x65, 0x72, 0x61, 0x73, 0x5f, 0x74, 0x65, 0x6e, 0x73, 0x6f, 0x72, 0x00, 0x00, 0x00, 0x00,
  0x02, 0x00, 0x00, 0x00, 0x34, 0x00, 0x00, 0x00, 0x04, 0x00, 0x00, 0x00, 0xdc, 0xff, 0xff, 0xff,
  0x10, 0x00, 0x00, 0x00, 0x04, 0x00, 0x00, 0x00, 0x13, 0x00, 0x00, 0x00, 0x43, 0x4f, 0x4e, 0x56,
  0x45, 0x52, 0x53, 0x49, 0x4f, 0x4e, 0x5f, 0x4d, 0x45, 0x54, 0x41, 0x44, 0x41, 0x54, 0x41, 0x00,
  0x08, 0x00, 0x0c, 0x00, 0x08, 0x00, 0x04, 0x00, 0x08, 0x00, 0x00, 0x00, 0x0f, 0x00, 0x00, 0x00,
  0x04, 0x00, 0x00, 0x00, 0x13, 0x00, 0x00, 0x00, 0x6d, 0x69, 0x6e, 0x5f, 0x72, 0x75, 0x6e, 0x74,
  0x69, 0x6d, 0x65, 0x5f, 0x76, 0x65, 0x72, 0x73, 0x69, 0x6f, 0x6e, 0x00, 0x11, 0x00, 0x00, 0x00,
  0xd0, 0x15, 0x00, 0x00, 0xc8, 0x15, 0x00, 0x00, 0x38, 0x15, 0x00, 0x00, 0xa8, 0x0e, 0x00, 0x00,
  0x98, 0x06, 0x00, 0x00, 0xc8, 0x05, 0x00, 0x00, 0xac, 0x05, 0x00, 0x00, 0x1c, 0x05, 0x00, 0x00,
  0xcc, 0x04, 0x00, 0x00, 0xbc, 0x00, 0x00, 0x00, 0xb4, 0x00, 0x00, 0x00, 0xac, 0x00, 0x00, 0x00,
  0xa4, 0x00, 0x00, 0x00, 0x9c, 0x00, 0x00, 0x00, 0x94, 0x00, 0x00, 0x00, 0x74, 0x00, 0x00, 0x00,
  0x04, 0x00, 0x00, 0x00, 0xde, 0xe9, 0xff, 0xff, 0x04, 0x00, 0x00, 0x00, 0x60, 0x00, 0x00, 0x00,
  0x0c, 0x00, 0x00, 0x00, 0x08, 0x00, 0x0e, 0x00, 0x08, 0x00, 0x04, 0x00, 0x08, 0x00, 0x00, 0x00,
  0x10, 0x00, 0x00, 0x00, 0x28, 0x00, 0x00, 0x00, 0x00, 0x00, 0x06, 0x00, 0x08, 0x00, 0x04, 0x00,
  0x06, 0x00, 0x00, 0x00, 0x04, 0x00, 0x00, 0x00, 0x01, 0x00, 0x00, 0x00, 0xea, 0x03, 0x00, 0x00,
  0x0c, 0x00, 0x18, 0x00, 0x14, 0x00, 0x10, 0x00, 0x0c, 0x00, 0x04, 0x00, 0x0c, 0x00, 0x00, 0x00,
  0xfe, 0xf2, 0xf9, 0x4d, 0xeb, 0xf2, 0x23, 0x59, 0x02, 0x00, 0x00, 0x00, 0x02, 0x00, 0x00, 0x00,
  0x04, 0x00, 0x00, 0x00, 0x06, 0x00, 0x00, 0x00, 0x32, 0x2e, 0x32, 0x30, 0x2e, 0x30, 0x00, 0x00,
  0x4a, 0xea, 0xff, 0xff, 0x04, 0x00, 0x00, 0x00, 0x10, 0x00, 0x00, 0x00, 0x32, 0x2e, 0x31, 0x37,
  0x2e, 0x30, 0x00, 0x00, 0x00, 0x00, 0x00, 0x00, 0x00, 0x00, 0x00, 0x00, 0xc4, 0xe1, 0xff, 0xff,
  0xc8, 0xe1, 0xff, 0xff, 0xcc, 0xe1, 0xff, 0xff, 0xd0, 0xe1, 0xff, 0xff, 0xd4, 0xe1, 0xff, 0xff,
  0x7a, 0xea, 0xff, 0xff, 0x04, 0x00, 0x00, 0x00, 0x00, 0x04, 0x00, 0x00, 0x19, 0x0c, 0x1d, 0xe0,
  0xef, 0x1e, 0x1f, 0xbb, 0xfe, 0x81, 0xff, 0xe2, 0x28, 0x10, 0x00, 0x02, 0xf0, 0x31, 0xbf, 0xeb,
  0xc2, 0x30, 0x00, 0x01, 0xe2, 0xd8, 0xfe, 0x26, 0xaf, 0xd4, 0xd2, 0x2b, 0x56, 0xee, 0xd2, 0xf3,
  0xc9, 0x36, 0xc0, 0x39, 0xba, 0x23, 0x35, 0xbf, 0x04, 0x13, 0x07, 0x1b, 0xfd, 0x40, 0xcf, 0x16,
  0x17, 0xbd, 0x28, 0x81, 0xf2, 0x22, 0xe5, 0xdc, 0xf1, 0x24, 0xea, 0xe3, 0x82, 0x13, 0xcc, 0xfd,
  0x18, 0xc5, 0x8f, 0x7f, 0x11, 0x06, 0x4d, 0xf9, 0x30, 0x15, 0xfb, 0x2a, 0x45, 0x36, 0x11, 0x60,
  0x1e, 0x95, 0x00, 0xcf, 0x56, 0xce, 0xa1, 0x8c, 0xbf, 0x85, 0x05, 0xa7, 0xc4, 0xd4, 0xbd, 0xec,
  0xbc, 0xee, 0x25, 0xd1, 0xf5, 0x12, 0xf2, 0xfe, 0xcf, 0x41, 0xda, 0x28, 0x18, 0xc4, 0x2f, 0x07,
  0xd6, 0xbd, 0x19, 0x81, 0x0d, 0xfe, 0x2c, 0x0f, 0x3c, 0x38, 0x2b, 0x25, 0xbd, 0xea, 0xd0, 0xfa,
  0xcf, 0xc5, 0x16, 0x00, 0xbc, 0x7f, 0xdd, 0x18, 0xe3, 0xf0, 0xef, 0x18, 0xf7, 0xdc, 0xf9, 0x04,
  0xc6, 0xce, 0x23, 0x37, 0xda, 0xee, 0xea, 0x02, 0xfe, 0x0a, 0x19, 0xc8, 0x3d, 0xc0, 0xd0, 0x40,
  0xef, 0x9c, 0x49, 0xe0, 0xf1, 0x20, 0x9d, 0x00, 0xbd, 0x2c, 0xdf, 0xfa, 0x81, 0xf1, 0xa9, 0x1c,
  0xd5, 0x12, 0x3e, 0xdd, 0xf7, 0x3e, 0xcf, 0x2f, 0x15, 0xb3, 0xaf, 0xaa, 0xd9, 0x08, 0xae, 0xe5,
  0xc3, 0x21, 0x28, 0x1b, 0x0f, 0x7f, 0x2a, 0x04, 0xd2, 0x13, 0xfd, 0xd9, 0xc3, 0xe2, 0xeb, 0xd7,
  0xcf, 0xe8, 0x09, 0xf7, 0x24, 0xc0, 0x31, 0xc3, 0xf7, 0xfc, 0x34, 0x33, 0x0b, 0x1c, 0xa6, 0xc1,
  0xd7, 0xe0, 0x69, 0x7f, 0x44, 0x2e, 0xc2, 0x03, 0xdc, 0xc8, 0x19, 0x1b, 0x36, 0xfd, 0xc2, 0xde,
  0x3a, 0xd6, 0xbe, 0xd3, 0xe7, 0xf7, 0x20, 0x5c, 0x3d, 0xc4, 0x33, 0xf1, 0xa5, 0x2e, 0x3e, 0xfe,
  0xec, 0xbf, 0x11, 0x8a, 0x24, 0x7f, 0x58, 0xe7, 0xe7, 0x0b, 0x1c, 0xe2, 0x0c, 0xf9, 0x28, 0x8d,
  0xd4, 0x2f, 0xd0, 0x50, 0xf9, 0x90, 0xcf, 0x31, 0x7e, 0xdd, 0x21, 0x08, 0x7f, 0x45, 0x09, 0xf7,
  0xf8, 0x49, 0xeb, 0x2b, 0x50, 0xa9, 0xf0, 0x3d, 0x36, 0x0c, 0x0a, 0xd9, 0xf5, 0x25, 0xbe, 0x40,
  0x33, 0x0e, 0xc5, 0x43, 0x03, 0x68, 0xeb, 0x5d, 0x9c, 0x27, 0x34, 0x47, 0xde, 0xa9, 0x97, 0xc8,
  0x3c, 0x9f, 0xfd, 0x81, 0x93, 0x89, 0x4f, 0x24, 0xdb, 0x16, 0xf9, 0x3c, 0x2d, 0x17, 0x0a, 0x8a,
  0x68, 0xfd, 0x58, 0x3c, 0xcd, 0xda, 0xdd, 0x1c, 0x27, 0x3b, 0xf7, 0x36, 0x95, 0xde, 0x81, 0x3b,
  0xa5, 0xcf, 0xd4, 0x2d, 0x51, 0xd5, 0x3e, 0xc8, 0xee, 0x20, 0x12, 0x1f, 0x51, 0xd8, 0x3d, 0x5a,
  0x01, 0xf8, 0x2e, 0xc8, 0x2c, 0xfb, 0xc6, 0x96, 0xd8, 0xae, 0xf5, 0x02, 0x59, 0xea, 0x30, 0xe2,
  0xcc, 0x52, 0x81, 0x02, 0xc9, 0x65, 0x31, 0x03, 0x01, 0x51, 0x29, 0x42, 0x31, 0x4c, 0xcd, 0x11,
  0x3c, 0x04, 0x6d, 0xfc, 0xfc, 0xe3, 0xec, 0x14, 0xe8, 0x3f, 0x11, 0xd2, 0x7f, 0xcf, 0xd3, 0xbd,
  0xc2, 0x4e, 0xb1, 0x46, 0x2a, 0x38, 0xb1, 0xf5, 0x03, 0x0f, 0x10, 0xd1, 0x2e, 0xc6, 0x1e, 0xf8,
  0x19, 0xce, 0x40, 0x18, 0xf6, 0xa5, 0xd1, 0x07, 0x32, 0xe0, 0x0a, 0xdb, 0x2a, 0xee, 0x7f, 0x1d,
  0x0c, 0x36, 0xe8, 0xa0, 0xe0, 0xd9, 0xce, 0xdc, 0xf0, 0xc2, 0xe8, 0x0e, 0x1c, 0x25, 0x05, 0xc6,
  0xf2, 0xec, 0x2a, 0x0d, 0x04, 0xc1, 0xcf, 0xb9, 0x01, 0x01, 0xf3, 0xa6, 0xaa, 0xe2, 0x53, 0x2c,
  0x42, 0xc2, 0xfd, 0xc3, 0x81, 0xc9, 0x29, 0x39, 0x27, 0xd0, 0xd8, 0xc1, 0x3e, 0xf4, 0xf1, 0xff,
  0x43, 0x1a, 0xe4, 0x59, 0x28, 0xe7, 0xdd, 0xaa, 0x0f, 0xa7, 0xf0, 0x62, 0x81, 0x10, 0xcb, 0x1e,
  0xc0, 0xdb, 0xba, 0x21, 0x45, 0x05, 0x77, 0x0b, 0xcb, 0x42, 0x32, 0x53, 0xde, 0x9e, 0xbf, 0xf8,
  0x41, 0xee, 0x4c, 0x75, 0xf7, 0xde, 0xaf, 0x48, 0x87, 0xf1, 0x47, 0x42, 0x81, 0xcf, 0x12, 0xe4,
  0xde, 0x98, 0xbd, 0xa5, 0x38, 0xe8, 0xb1, 0xf6, 0x31, 0xc3, 0xfa, 0x1d, 0xb4, 0x05, 0xd7, 0xf0,
  0x2e, 0x18, 0xce, 0xb4, 0xd4, 0x38, 0x23, 0x32, 0xb4, 0xc7, 0xdb, 0x0b, 0x4d, 0xd4, 0x9e, 0x2d,
  0x04, 0x9f, 0x49, 0xa9, 0x04, 0x41, 0x59, 0x26, 0xd3, 0xbd, 0x0d, 0x41, 0xe7, 0xd9, 0xb0, 0xb2,
  0x24, 0x31, 0x51, 0x98, 0xfc, 0x30, 0xc7, 0x41, 0x81, 0xbb, 0x09, 0xe3, 0x0d, 0xf5, 0xda, 0xd4,
  0xfe, 0xe1, 0x3c, 0xfd, 0xcd, 0x7f, 0xf3, 0xef, 0xf5, 0xf6, 0xf2, 0xf1, 0x07, 0xdf, 0x3b, 0xe8,
  0xdf, 0x11, 0xf0, 0xd7, 0x0b, 0xed, 0x0b, 0xf7, 0xbd, 0x0b, 0xf7, 0xd2, 0x50, 0x2e, 0xd9, 0x07,
  0xf1, 0xc3, 0x1a, 0x49, 0x08, 0x6c, 0xd8, 0x11, 0x07, 0x1f, 0x1a, 0xf7, 0xf5, 0xe1, 0xcf, 0xb2,
  0xf1, 0xbf, 0x30, 0x81, 0x03, 0xc9, 0xfa, 0x31, 0x4d, 0x21, 0x1f, 0xed, 0xdc, 0x15, 0xf6, 0xdd,
  0x09, 0x09, 0x1b, 0xd3, 0x09, 0x81, 0xcc, 0xf4, 0x1b, 0xfa, 0xf4, 0x14, 0xef, 0x05, 0xea, 0x0e,
  0xf7, 0x05, 0x15, 0xd8, 0xe7, 0x18, 0x02, 0xf7, 0xbc, 0x04, 0x13, 0xef, 0x23, 0xe7, 0xce, 0x98,
  0x27, 0x91, 0xbb, 0x1b, 0x8c, 0xe9, 0x1e, 0x36, 0xd6, 0xfc, 0x0e, 0xf5, 0xf7, 0xea, 0x5d, 0xf5,
  0x81, 0xfe, 0x32, 0x3d, 0xdf, 0x07, 0xd2, 0x46, 0x8e, 0xfd, 0x28, 0xff, 0xf2, 0xfa, 0xf8, 0x11,
  0x02, 0x05, 0xd6, 0xb8, 0xe6, 0x7f, 0xaf, 0x16, 0xed, 0xf4, 0xfd, 0x12, 0x1a, 0xef, 0xe8, 0x12,
  0x0f, 0xd1, 0x02, 0xea, 0xe5, 0xdf, 0x26, 0xdf, 0xb3, 0xdb, 0xce, 0xdb, 0x5b, 0x28, 0xb4, 0xed,
  0xee, 0x2f, 0xe0, 0x06, 0xbb, 0x44, 0x7f, 0x3d, 0x33, 0xe0, 0x0d, 0x2a, 0xfd, 0x48, 0xdc, 0x5f,
  0x21, 0x1a, 0x0a, 0xa7, 0x0d, 0xcb, 0xbd, 0xd7, 0xf1, 0xeb, 0xb8, 0xd0, 0x0d, 0x1f, 0xd7, 0xe9,
  0x02, 0xec, 0xba, 0xd0, 0x08, 0x7f, 0xd8, 0xfa, 0xff, 0x05, 0xf7, 0x08, 0xe0, 0x12, 0x12, 0x2b,
  0x04, 0x25, 0xf5, 0x51, 0xe8, 0x02, 0xe7, 0x25, 0x32, 0x36, 0x0b, 0x0f, 0xe2, 0xe1, 0xcb, 0x1c,
  0x2b, 0x11, 0xd9, 0x1f, 0xcb, 0x7f, 0x1d, 0x1f, 0x08, 0x32, 0xf9, 0xf0, 0x1f, 0x1c, 0xe9, 0x27,
  0x35, 0x06, 0xe2, 0x25, 0x28, 0xf4, 0x3e, 0xe2, 0xd9, 0x0b, 0x34, 0x21, 0x81, 0x21, 0x0b, 0xe5,
  0xe5, 0x3b, 0xc4, 0xb0, 0x27, 0xc7, 0xbc, 0x44, 0x2a, 0xc4, 0xff, 0xfa, 0x13, 0x16, 0x3c, 0x3f,
  0x2a, 0x2a, 0xfb, 0xd5, 0xd2, 0x38, 0xcb, 0xd0, 0xc0, 0xf0, 0xdb, 0xad, 0x98, 0x1a, 0x40, 0xe5,
  0x45, 0x0f, 0xef, 0xc6, 0x60, 0x81, 0xcc, 0xeb, 0xf1, 0x0b, 0xf9, 0x07, 0x26, 0x08, 0xaa, 0x44,
  0x3d, 0x32, 0xae, 0x10, 0xf7, 0xcd, 0x09, 0x2b, 0x00, 0x11, 0xc1, 0xbc, 0x76, 0xd6, 0x30, 0x51,
  0xf4, 0x02, 0x24, 0xbe, 0x01, 0x5c, 0x7f, 0xd9, 0x04, 0x39, 0x0e, 0xce, 0xcd, 0xf5, 0xae, 0xa3,
  0xb3, 0x1b, 0x64, 0xdf, 0x3e, 0x54, 0x0c, 0x5e, 0x5e, 0x1d, 0xc1, 0x5f, 0x81, 0x29, 0x3f, 0x24,
  0xce, 0x3c, 0xf2, 0x16, 0x34, 0xfc, 0xde, 0x12, 0xf2, 0x16, 0xfb, 0xf5, 0x02, 0x1f, 0x47, 0xbb,
  0xa5, 0xd6, 0xfa, 0x3a, 0xe1, 0xcd, 0xbf, 0xaf, 0x1f, 0x08, 0xd8, 0x27, 0x5e, 0x21, 0xf2, 0xe0,
  0x16, 0xcd, 0x3b, 0xd7, 0xf6, 0x2b, 0x21, 0xdf, 0xd6, 0x2b, 0x0d, 0xce, 0xed, 0xdf, 0xbe, 0xb9,
  0x09, 0x05, 0xc5, 0x29, 0x39, 0xab, 0xe7, 0xe0, 0x7f, 0x08, 0xe1, 0x00, 0x86, 0xee, 0xff, 0xff,
  0x04, 0x00, 0x00, 0x00, 0x40, 0x00, 0x00, 0x00, 0xa5, 0x1c, 0x8f, 0xbc, 0xe4, 0x21, 0x80, 0x3d,
  0x1f, 0xd0, 0xa9, 0x3d, 0xb1, 0x3c, 0xc2, 0x3d, 0xec, 0x2b, 0x01, 0xbb, 0x58, 0x37, 0xe7, 0x3d,
  0xcb, 0x7d, 0x36, 0x3b, 0x09, 0x7a, 0x25, 0xbd, 0xc1, 0x0b, 0xb0, 0x3d, 0x6a, 0xa2, 0x8a, 0xbd,
  0xbe, 0x10, 0xc7, 0x3b, 0x36, 0x00, 0xb7, 0x3d, 0xbd, 0xce, 0x1f, 0x3d, 0xaa, 0xdb, 0xa7, 0x3d,
  0xb9, 0x9f, 0xb4, 0x3d, 0x27, 0xb7, 0x49, 0x3e, 0xd2, 0xee, 0xff, 0xff, 0x04, 0x00, 0x00, 0x00,
  0x80, 0x00, 0x00, 0x00, 0x9a, 0x26, 0x9d, 0x3f, 0x87, 0xc8, 0x6b, 0x3f, 0x08, 0xe9, 0x46, 0x3f,
  0xcb, 0x95, 0x1b, 0x3f, 0x72, 0x28, 0xbc, 0x3f, 0x94, 0x21, 0xf1, 0x3f, 0x8d, 0x56, 0x1f, 0x3f,
  0xc1, 0x7e, 0xea, 0xbd, 0xb2, 0x10, 0x14, 0xbe, 0x57, 0x39, 0x1a, 0xc0, 0x6d, 0x12, 0xe9, 0x3e,
  0x30, 0xcb, 0x44, 0x3f, 0xcd, 0x39, 0x8b, 0xbf, 0x89, 0xef, 0x77, 0x3f, 0x9a, 0x2c, 0xa0, 0x3f,
  0x5b, 0x1e, 0xc8, 0x3e, 0x35, 0xca, 0xfa, 0xbe, 0xc4, 0x42, 0x0b, 0x40, 0x16, 0x80, 0x32, 0x3f,
  0xea, 0xd6, 0xd4, 0x3f, 0x83, 0xff, 0x4c, 0xbe, 0x36, 0xc2, 0xc2, 0x3f, 0x45, 0x0d, 0x5d, 0x3f,
  0x7f, 0x8b, 0x12, 0x40, 0xa8, 0x7f, 0x13, 0xbe, 0x0f, 0xe9, 0x4e, 0xbf, 0xcc, 0x98, 0xb4, 0xbf,
  0xa1, 0x06, 0x3b, 0x3f, 0x29, 0x6a, 0x04, 0x3f, 0xa1, 0xff, 0x81, 0xbf, 0x8a, 0x63, 0xf5, 0x3e,
  0x07, 0xe6, 0x12, 0x3f, 0x5e, 0xef, 0xff, 0xff, 0x04, 0x00, 0x00, 0x00, 0x0c, 0x00, 0x00, 0x00,
  0xf1, 0x41, 0x7a, 0xbc, 0x5c, 0xf5, 0x6f, 0x3d, 0xfe, 0xe6, 0xa3, 0xbd, 0x76, 0xef, 0xff, 0xff,
  0x04, 0x00, 0x00, 0x00, 0xc0, 0x00, 0x00, 0x00, 0x67, 0x15, 0x53, 0x3e, 0x68, 0x9a, 0x03, 0x3f,
  0x35, 0x12, 0xbe, 0xbd, 0x07, 0x11, 0xa1, 0x3e, 0x2e, 0x03, 0xbc, 0x3e, 0x0c, 0xa3, 0x50, 0xbd,
  0x62, 0x9e, 0xb1, 0x3e, 0xc7, 0x60, 0x0d, 0x3f, 0xb7, 0x5e, 0xd2, 0xbe, 0xea, 0x15, 0xb8, 0x3e,
  0xfa, 0x80, 0xc1, 0xbd, 0xaa, 0x99, 0xc9, 0x3e, 0x94, 0x54, 0x61, 0x3e, 0xad, 0x71, 0xb1, 0xbe,
  0xfe, 0xc6, 0xc6, 0xbe, 0x3d, 0x74, 0x17, 0x3f, 0x3a, 0xe7, 0x2f, 0xbf, 0x88, 0x8b, 0x0d, 0xbe,
  0x98, 0x54, 0x93, 0x3d, 0x91, 0x05, 0x48, 0x3e, 0xe7, 0xe8, 0xf4, 0xbe, 0x69, 0xec, 0x91, 0x3e,
  0x5a, 0xff, 0xc5, 0xbe, 0x75, 0x96, 0x36, 0xbe, 0x59, 0xd4, 0x99, 0x3e, 0xd9, 0xfe, 0xcf, 0x3d,
  0xc3, 0x72, 0x00, 0xbf, 0x9e, 0xc1, 0xef, 0x3e, 0xdf, 0x49, 0x0c, 0x3f, 0xae, 0x30, 0xc8, 0xbd,
  0xac, 0x4f, 0xea, 0x3e, 0x38, 0xd2, 0x17, 0x3f, 0xc5, 0x19, 0xc1, 0x3e, 0x7b, 0x53, 0x2b, 0xbf,
  0x83, 0x25, 0xba, 0xbe, 0x1d, 0x5c, 0x03, 0xbf, 0x55, 0xa7, 0x54, 0xbe, 0x10, 0xb9, 0x39, 0xbf,
  0xf8, 0x59, 0xe2, 0xbe, 0xc6, 0xf2, 0xff, 0x3d, 0xf1, 0x42, 0xc0, 0xbe, 0xb9, 0x1b, 0x55, 0xbd,
  0xef, 0xee, 0x02, 0xbf, 0x0d, 0x58, 0xeb, 0x3d, 0x4b, 0x3a, 0xc2, 0x3e, 0x73, 0x53, 0x0f, 0xbf,
  0x3c, 0xe4, 0x35, 0xbf, 0x8e, 0xe1, 0xdf, 0x3d, 0x42, 0xf0, 0xff, 0xff, 0x04, 0x00, 0x00, 0x00,
  0x00, 0x08, 0x00, 0x00, 0x52, 0xa6, 0x0a, 0xbc, 0xa0, 0xd5, 0x52, 0x3d, 0xd3, 0x28, 0xfb, 0xbc,
  0x6d, 0x54, 0x8b, 0xbe, 0x77, 0x87, 0xe0, 0x3c, 0x24, 0x4d, 0x41, 0xbe, 0x3a, 0x47, 0xfd, 0xbd,
  0x2d, 0x1d, 0xd4, 0x3d, 0x29, 0x3e, 0xd4, 0xbd, 0x39, 0x9f, 0x14, 0xbe, 0x6e, 0x22, 0x85, 0x3e,
  0x2f, 0x1d, 0xa3, 0x3e, 0xce, 0x01, 0x17, 0x3d, 0x59, 0x7b, 0x68, 0xbe, 0x3f, 0xe3, 0x8f, 0xbe,
  0xad, 0x5b, 0x1f, 0x3e, 0xac, 0x54, 0xa4, 0x3d, 0x18, 0xc0, 0x6e, 0xbe, 0x5d, 0xc3, 0x3b, 0x3e,
  0x64, 0x64, 0xad, 0xbe, 0xe8, 0xc3, 0x1c, 0x3e, 0x8d, 0x6e, 0x63, 0xbe, 0x8f, 0x39, 0x0c, 0xbe,
  0x37, 0xa3, 0xf6, 0xbe, 0x30, 0xe9, 0x6b, 0x3d, 0x8e, 0x42, 0x3a, 0x3d, 0xed, 0xf3, 0xb4, 0xbe,
  0x6d, 0xe4, 0x76, 0x3e, 0x7d, 0xb2, 0xba, 0x3e, 0x6f, 0x6e, 0xcb, 0xbe, 0x19, 0x09, 0x68, 0xbe,
  0x49, 0xf2, 0x91, 0x3e, 0xbd, 0xf6, 0xa7, 0x3e, 0x99, 0x14, 0x2e, 0xbe, 0x3b, 0x88, 0x8a, 0xbe,
  0x5f, 0xa6, 0x5c, 0x3d, 0xcc, 0x45, 0x82, 0xbe, 0xc4, 0x97, 0x4b, 0xbe, 0x57, 0x60, 0x9f, 0xbd,
  0xd1, 0x4a, 0x75, 0x3e, 0x90, 0x24, 0x8f, 0x3e, 0x1e, 0x70, 0x0b, 0xbe, 0x82, 0xa0, 0x58, 0x3e,
  0xd6, 0xf4, 0x66, 0xbe, 0xc5, 0xbf, 0xba, 0x3e, 0xfd, 0x64, 0x4c, 0x3e, 0xe3, 0x7f, 0xb9, 0xbd,
  0xad, 0x7f, 0xdb, 0xbd, 0x93, 0x3b, 0x07, 0x3e, 0xf8, 0x3f, 0xa1, 0xbe, 0xdd, 0x1d, 0x38, 0xbe,
  0xf7, 0x4c, 0x5d, 0xbd, 0xbe, 0xb0, 0x46, 0xbe, 0xd5, 0x3f, 0xaf, 0x3e, 0x1d, 0x24, 0x64, 0xbd,
  0x70, 0xb2, 0x46, 0x3d, 0x76, 0x15, 0x14, 0xbe, 0xb8, 0xb5, 0xa4, 0x3e, 0xc2, 0x95, 0x36, 0xbd,
  0x43, 0x3f, 0x10, 0x3e, 0x95, 0xe6, 0x0e, 0xbd, 0xfd, 0x28, 0xb3, 0xbe, 0x21, 0x3f, 0x51, 0xbd,
  0x75, 0xc9, 0x90, 0x3e, 0xef, 0x0a, 0x94, 0xbe, 0x97, 0xe3, 0x21, 0xbd, 0x6a, 0x17, 0x52, 0xbd,
  0xd8, 0x00, 0xb3, 0x3e, 0xb4, 0x27, 0xde, 0x3b, 0x30, 0x04, 0x12, 0x3e, 0x1e, 0xd6, 0xf0, 0x3c,
  0x93, 0xe6, 0x80, 0xbc, 0x0d, 0xee, 0x78, 0xbd, 0x43, 0x28, 0xa2, 0x3d, 0xca, 0x54, 0x2c, 0xbe,
  0xb7, 0xa8, 0xbd, 0x3e, 0xf8, 0x2e, 0xbf, 0x3e, 0xf0, 0xbd, 0x36, 0xbd, 0xbf, 0x56, 0x53, 0x3d,
  0xb6, 0xd7, 0xd7, 0x3e, 0x8f, 0xce, 0xb9, 0x3e, 0x4d, 0x24, 0x8c, 0x3e, 0xc4, 0x7d, 0x2c, 0xbe,
  0x63, 0xb4, 0x79, 0xbe, 0xa2, 0x8b, 0x31, 0x3e, 0x2c, 0x7c, 0xa3, 0x3b, 0x99, 0x5b, 0x16, 0x3e,
  0xf7, 0x68, 0xcb, 0xbd, 0x5f, 0x61, 0x87, 0xbe, 0x2c, 0x06, 0x10, 0x3e, 0xb6, 0x7f, 0xf3, 0x3c,
  0xbf, 0x37, 0x9d, 0xbc, 0x25, 0x20, 0x03, 0x3e, 0x6e, 0x6b, 0xb5, 0x3e, 0x54, 0xdf, 0x81, 0x3d,
  0xca, 0xa8, 0xd0, 0x3e, 0xfd, 0xe3, 0xc0, 0x3e, 0x29, 0x39, 0xae, 0x3e, 0x6d, 0x36, 0x81, 0x3e,
  0xfd, 0x41, 0x59, 0xbe, 0x22, 0x5a, 0xbb, 0xbd, 0x43, 0xde, 0x5d, 0x3d, 0x44, 0x15, 0x33, 0x3e,
  0x22, 0x22, 0xe1, 0x3e, 0x8a, 0x1c, 0xcb, 0xbd, 0x75, 0x87, 0xcd, 0x3e, 0x90, 0x40, 0x34, 0xbd,
  0xee, 0x76, 0x8b, 0x3e, 0x17, 0x27, 0x1c, 0xbe, 0x04, 0x9b, 0x7d, 0x3e, 0x99, 0x45, 0x11, 0x3e,
  0x4a, 0x1b, 0xfc, 0xbc, 0xb4, 0xee, 0x8b, 0x3d, 0xd6, 0xf4, 0x02, 0x3d, 0x6a, 0x2e, 0xf0, 0x3d,
  0xdf, 0xf5, 0x18, 0x3e, 0xe0, 0xb6, 0x0d, 0x3e, 0xde, 0x11, 0xcd, 0x3d, 0x6d, 0x4e, 0xda, 0x3e,
  0xaf, 0x88, 0xb9, 0x3e, 0x07, 0x86, 0xc6, 0x3e, 0x72, 0x6d, 0x36, 0x3e, 0x08, 0xd7, 0x1b, 0xbe,
  0x7a, 0x12, 0x6e, 0xbe, 0x4e, 0x9e, 0xe6, 0x3e, 0x28, 0x89, 0xc3, 0x3c, 0x72, 0x40, 0xb0, 0x3e,
  0x96, 0xbf, 0xd3, 0x3d, 0xca, 0x5e, 0x45, 0x3d, 0x52, 0x64, 0xbd, 0x3e, 0xd2, 0xb5, 0x8e, 0x3e,
  0xe7, 0x0c, 0x7f, 0x3e, 0xc6, 0x05, 0xa5, 0x3e, 0xc1, 0x40, 0x5f, 0x3d, 0x5e, 0x72, 0xa5, 0x3e,
  0x46, 0xc7, 0x00, 0xbe, 0x76, 0xa7, 0x67, 0xbc, 0xb6, 0xac, 0xb3, 0xbe, 0x88, 0x26, 0x62, 0xbd,
  0x5f, 0x6d, 0x24, 0x3e, 0xcc, 0xd8, 0xf6, 0x3d, 0xd4, 0xeb, 0x6c, 0xbe, 0x80, 0xc1, 0x90, 0xbe,
  0xde, 0xa5, 0x94, 0x3e, 0x4b, 0xa1, 0x61, 0x3e, 0xa1, 0x8f, 0xc5, 0x3c, 0x4d, 0x55, 0xb0, 0xbd,
  0xc3, 0x83, 0x90, 0x3e, 0x9c, 0x2d, 0x25, 0xbe, 0x29, 0xf3, 0xb7, 0x3d, 0xd1, 0xa1, 0xba, 0x3d,
  0x49, 0xad, 0x34, 0xbe, 0x2e, 0xaa, 0x41, 0x3e, 0xcf, 0x6f, 0x16, 0xbe, 0x98, 0x9d, 0x09, 0xbd,
  0x92, 0xbf, 0x63, 0xbe, 0x77, 0xf2, 0xc5, 0xbe, 0xb3, 0x88, 0xc5, 0xbe, 0x18, 0x25, 0x91, 0x3e,
  0x77, 0x5b, 0x59, 0xbd, 0xa5, 0xe4, 0x77, 0x3e, 0x0a, 0x4a, 0xed, 0x3d, 0x01, 0x22, 0x5a, 0xbe,
  0x75, 0x9b, 0x04, 0x3e, 0x8e, 0xca, 0x31, 0xbd, 0x87, 0x8a, 0x9a, 0x3e, 0xc1, 0x64, 0xf1, 0x3d,
  0x93, 0x62, 0xe2, 0xbd, 0x25, 0x06, 0x8c, 0xbe, 0xf8, 0x4a, 0xd0, 0xbd, 0xae, 0x98, 0x8c, 0x3e,
  0x46, 0x60, 0x1f, 0x3d, 0x25, 0xb0, 0x92, 0x3e, 0xe1, 0x02, 0x1a, 0x3e, 0x9b, 0x6c, 0x4a, 0x3e,
  0x4a, 0xb9, 0x0c, 0xbd, 0x39, 0x24, 0x6d, 0xbe, 0x9a, 0x4b, 0x86, 0x3e, 0x09, 0xb6, 0xd0, 0x3d,
  0x17, 0x43, 0x62, 0x3e, 0xda, 0x40, 0x5b, 0xbe, 0xff, 0x08, 0x5f, 0x3e, 0x0d, 0x31, 0x8c, 0xbe,
  0x33, 0x8a, 0xe7, 0xbd, 0x5f, 0x18, 0x4e, 0x3e, 0xcf, 0x1a, 0xa2, 0x3e, 0xf2, 0x17, 0x89, 0x3e,
  0xc3, 0xa5, 0x9a, 0x3e, 0xc6, 0x01, 0x56, 0x3e, 0xdb, 0xfe, 0xb4, 0x3e, 0x3c, 0xd9, 0x73, 0xbe,
  0x2d, 0xeb, 0x30, 0xbe, 0x2d, 0x9e, 0x83, 0xbe, 0x23, 0x33, 0xdc, 0x3e, 0xe3, 0x9e, 0x97, 0xbe,
  0xf8, 0xb7, 0x09, 0x3e, 0xf7, 0xf1, 0xcc, 0x3e, 0xad, 0xa5, 0x8d, 0xbe, 0xb8, 0xc7, 0x73, 0xbd,
  0x19, 0xa8, 0x77, 0x3e, 0x47, 0xbd, 0x7e, 0x3e, 0xc7, 0xcc, 0xe9, 0x3d, 0xa2, 0x79, 0xbb, 0xbd,
  0xff, 0x49, 0x34, 0xbe, 0xb2, 0x4e, 0x9d, 0xbe, 0x76, 0x6b, 0xd6, 0x3e, 0x81, 0xc9, 0x64, 0x3e,
  0xb5, 0x07, 0x24, 0x3e, 0x3f, 0xca, 0x96, 0x3e, 0x2d, 0xec, 0xbb, 0xbe, 0xc9, 0x7a, 0x03, 0x3e,
  0x4a, 0x4e, 0xa4, 0xbd, 0x00, 0xcd, 0xdf, 0xbd, 0x68, 0xff, 0x57, 0x3e, 0x68, 0x3f, 0x13, 0x3e,
  0x69, 0x2a, 0xa0, 0x3e, 0xbb, 0x38, 0x91, 0x3e, 0x92, 0xce, 0x89, 0xbe, 0xb3, 0x7d, 0xe1, 0xbe,
  0xc3, 0x11, 0xe8, 0xbd, 0xcd, 0x97, 0xa7, 0x3e, 0xe7, 0x51, 0xbe, 0x3d, 0xf8, 0xe8, 0x63, 0xbe,
  0xe0, 0xcc, 0xbc, 0x3c, 0x43, 0xcc, 0x83, 0xbd, 0x5e, 0x3e, 0xe4, 0x3e, 0xee, 0xbf, 0x92, 0x3e,
  0x6d, 0x23, 0x5a, 0x3e, 0x8b, 0xd5, 0x47, 0x3d, 0x26, 0x51, 0xcb, 0xbd, 0x71, 0x82, 0xc0, 0x3e,
  0xc8, 0x62, 0x28, 0x3e, 0xf9, 0xcb, 0x74, 0xbe, 0xe4, 0x93, 0xa4, 0xbe, 0xca, 0x7f, 0x55, 0xbd,
  0xa7, 0x2b, 0xf9, 0x3d, 0xd4, 0xd3, 0x7b, 0xbe, 0xe6, 0x05, 0x05, 0x3e, 0x0a, 0x13, 0x0c, 0x3e,
  0x0e, 0xcd, 0xa5, 0xbe, 0xcc, 0x03, 0xca, 0x3d, 0x7f, 0x28, 0x03, 0x3e, 0x2f, 0xde, 0x15, 0x3d,
  0x29, 0xc9, 0x36, 0xbe, 0x25, 0x97, 0x86, 0x3e, 0xb8, 0x32, 0xa6, 0xbe, 0xa6, 0x97, 0x7d, 0xbe,
  0xcb, 0x1a, 0x92, 0xbe, 0x73, 0x82, 0x6b, 0x3e, 0x21, 0xa9, 0xa4, 0xbd, 0xc3, 0x31, 0xa6, 0xbc,
  0xdb, 0x8a, 0x6a, 0xbd, 0x76, 0xfe, 0x3a, 0x3e, 0x17, 0xb0, 0x12, 0xbe, 0xb7, 0x88, 0x77, 0x3e,
  0x51, 0x97, 0x51, 0xbd, 0x21, 0x6d, 0xb7, 0xbc, 0xfc, 0x56, 0x93, 0xbe, 0xc2, 0x91, 0xb1, 0x3e,
  0xf1, 0x28, 0x94, 0x3d, 0x59, 0xce, 0xd8, 0xbc, 0xc2, 0x5d, 0x0a, 0x3e, 0x74, 0xd6, 0x78, 0xbe,
  0xdf, 0x01, 0x05, 0x3e, 0x5c, 0xd8, 0x8b, 0xbe, 0x00, 0x50, 0x42, 0xbe, 0x55, 0x7f, 0x5c, 0x3d,
  0x30, 0x57, 0x33, 0xbe, 0x05, 0xd9, 0xb1, 0x3d, 0x07, 0xb0, 0xd4, 0x3d, 0x4b, 0xef, 0x0a, 0x3e,
  0x25, 0x17, 0x0f, 0x3e, 0x3f, 0x62, 0x4d, 0xbe, 0xe8, 0xe2, 0xc4, 0x3e, 0xef, 0xa8, 0x0e, 0x3e,
  0xb1, 0x91, 0x51, 0x3e, 0x27, 0x56, 0xf5, 0x3d, 0xec, 0xd1, 0x97, 0x3e, 0xc9, 0x7e, 0x5e, 0xbe,
  0xb1, 0xf3, 0xfb, 0x3d, 0xb2, 0x51, 0x8e, 0xbe, 0x53, 0xf9, 0x71, 0x3d, 0x95, 0xaa, 0xf0, 0xbd,
  0xba, 0xa3, 0x4c, 0x3e, 0x46, 0xfb, 0xa1, 0x3e, 0x10, 0xe3, 0x5f, 0x3e, 0x21, 0x1e, 0x93, 0xbe,
  0x25, 0x78, 0x96, 0xbe, 0x33, 0xdf, 0x80, 0xbe, 0x19, 0x67, 0xa7, 0xbe, 0xb7, 0x63, 0xa2, 0x3d,
  0x73, 0x2d, 0x9c, 0x3e, 0xae, 0xf3, 0xbe, 0xbe, 0x8c, 0xfe, 0x02, 0x3e, 0xbe, 0xa7, 0x8b, 0xbe,
  0xfe, 0x9b, 0x46, 0xbe, 0xdc, 0xa6, 0x1c, 0xbe, 0x18, 0x6d, 0xca, 0x3d, 0x52, 0xc4, 0x47, 0x3e,
  0xe2, 0x64, 0x36, 0x3d, 0xf1, 0xc3, 0xb5, 0xbe, 0x84, 0x54, 0x0d, 0xbe, 0xf8, 0x79, 0x1f, 0x3e,
  0x21, 0x5b, 0x6c, 0x3e, 0x4a, 0x66, 0x16, 0xbe, 0x8f, 0x26, 0x40, 0x3e, 0xcf, 0x48, 0x49, 0xbe,
  0xc8, 0x07, 0x7c, 0xbe, 0x16, 0xa8, 0x34, 0x3e, 0x9d, 0xc5, 0x4d, 0xbe, 0xda, 0xe5, 0x07, 0xbe,
  0x71, 0xce, 0x40, 0x3e, 0x28, 0x1e, 0xd5, 0x3d, 0xf0, 0xd8, 0xce, 0x3c, 0x6a, 0x83, 0xbb, 0x3d,
  0xae, 0xae, 0xc4, 0xbe, 0x48, 0xf0, 0xd7, 0xbe, 0x2e, 0x4d, 0x9a, 0xbe, 0x60, 0xa1, 0x6c, 0xbe,
  0x39, 0x72, 0x87, 0x3e, 0x6c, 0xd6, 0x34, 0x3e, 0xbb, 0xfb, 0x33, 0x3e, 0xe0, 0xe3, 0xc9, 0x3e,
  0x8c, 0x97, 0x6f, 0x3a, 0xb4, 0xda, 0x5d, 0x3e, 0xc4, 0x79, 0x0e, 0xbd, 0xa0, 0xbd, 0x72, 0xbe,
  0x52, 0x43, 0xb7, 0x3e, 0xd1, 0x19, 0x89, 0xbe, 0x09, 0x92, 0x95, 0x3e, 0x13, 0x8e, 0xb4, 0xbc,
  0x1f, 0xf7, 0xb2, 0x3e, 0x8a, 0xc1, 0xa4, 0x3e, 0xa6, 0xf1, 0xba, 0x3e, 0x23, 0xd2, 0x05, 0xbe,
  0x0a, 0x8c, 0xe0, 0x3d, 0x31, 0xf4, 0x34, 0xbe, 0xa0, 0x20, 0xa2, 0xbd, 0x83, 0x82, 0xbf, 0xbe,
  0xee, 0x12, 0x8a, 0x3e, 0x92, 0xa8, 0xb2, 0xbe, 0x2d, 0xd6, 0xde, 0x3c, 0x1c, 0x73, 0x0c, 0x3e,
  0x64, 0xf4, 0xe7, 0xbd, 0xd9, 0x25, 0x86, 0x3c, 0x37, 0x39, 0xb5, 0x3e, 0xf3, 0x44, 0xf2, 0xbb,
  0x61, 0x77, 0xe9, 0xbd, 0x44, 0x59, 0x24, 0x3e, 0xe3, 0x92, 0x3a, 0xbe, 0x20, 0x8e, 0x4c, 0xbe,
  0x2e, 0x2b, 0x30, 0x3e, 0x84, 0xdb, 0x92, 0x3e, 0xab, 0xf9, 0x0a, 0x3e, 0x6c, 0xad, 0x62, 0x3e,
  0xd3, 0xa4, 0x68, 0x3e, 0x4b, 0x71, 0x8d, 0x3e, 0x28, 0x19, 0xc1, 0xbd, 0xeb, 0xae, 0x5b, 0xbe,
  0x50, 0xaf, 0x80, 0x3e, 0xd8, 0x4f, 0x88, 0x3d, 0x83, 0x9d, 0xc0, 0x3e, 0x3b, 0x03, 0xb4, 0xbe,
  0x16, 0x2c, 0x1b, 0xbe, 0xa6, 0xe4, 0x17, 0xbe, 0x5d, 0xe7, 0xa1, 0xbd, 0x35, 0xf6, 0x03, 0xbc,
  0xd0, 0x41, 0x4d, 0xbe, 0x59, 0x44, 0x41, 0xbe, 0x93, 0x8f, 0x73, 0xbd, 0xa2, 0x77, 0x39, 0x3e,
  0xfb, 0x44, 0xdc, 0x3d, 0x22, 0x93, 0x8c, 0xbc, 0x83, 0x58, 0xaf, 0x3e, 0xd1, 0x1a, 0x7c, 0x3e,
  0xcc, 0x41, 0xd8, 0xbd, 0x9c, 0x0f, 0xb4, 0x3e, 0x95, 0x0c, 0x4b, 0x3d, 0x94, 0x87, 0xc8, 0xbd,
  0x70, 0x60, 0x83, 0xbd, 0x0a, 0xbb, 0x7d, 0x3e, 0x27, 0x4a, 0xc6, 0x3e, 0x8e, 0x46, 0x43, 0xbd,
  0x2e, 0xd1, 0x54, 0xbe, 0x7f, 0xf5, 0x07, 0x3e, 0x8f, 0x68, 0x7e, 0x3e, 0x67, 0xa3, 0x2e, 0x3e,
  0xbe, 0xe5, 0xd2, 0xbe, 0xfb, 0xec, 0x31, 0x3e, 0x5d, 0xb0, 0x1b, 0x3e, 0xe9, 0x8b, 0x20, 0xbe,
  0x92, 0x1c, 0x99, 0xbb, 0x0d, 0x83, 0x91, 0xbd, 0x91, 0xac, 0xec, 0x3c, 0x18, 0x19, 0x0a, 0x3e,
  0x22, 0xa1, 0x98, 0xbe, 0x07, 0xd9, 0x72, 0xbe, 0x5c, 0x5a, 0x34, 0x3d, 0xcf, 0xa1, 0xfe, 0x3c,
  0x8b, 0xc9, 0x37, 0xbe, 0x67, 0xd4, 0xb4, 0xbe, 0x92, 0xc7, 0xb6, 0x3d, 0x56, 0x22, 0xa0, 0x3d,
  0x42, 0x7a, 0xa7, 0xbe, 0x8f, 0xd7, 0x81, 0xbd, 0x61, 0x73, 0x90, 0xbd, 0xf0, 0x58, 0xd5, 0xbe,
  0xf1, 0xf8, 0x88, 0xbe, 0xd2, 0x84, 0xb8, 0x3e, 0x9f, 0x4c, 0xf8, 0x3d, 0xe6, 0xd0, 0x67, 0xbe,
  0xb7, 0x0f, 0x26, 0x3e, 0x95, 0xf9, 0xeb, 0xbd, 0xe4, 0x3f, 0x33, 0xbe, 0xce, 0x6e, 0x83, 0xbe,
  0xbe, 0xfa, 0xa7, 0xbe, 0xfd, 0x3d, 0xd1, 0x3e, 0xcb, 0xc2, 0xd4, 0xbe, 0x36, 0x7f, 0x8e, 0xbc,
  0x11, 0x17, 0x39, 0x3e, 0x61, 0x97, 0xa6, 0xbd, 0x32, 0xa5, 0x0b, 0x3e, 0x41, 0xf3, 0x06, 0x3e,
  0x67, 0x30, 0x9c, 0x3e, 0x04, 0xbe, 0x87, 0x3d, 0x8c, 0xb5, 0x0b, 0xbd, 0x2a, 0xdc, 0x58, 0xbe,
  0x5d, 0xc1, 0x62, 0x3e, 0xc9, 0xe1, 0x7c, 0x3d, 0xeb, 0xa9, 0x8f, 0x3e, 0x33, 0xa7, 0x3d, 0x3e,
  0xc6, 0x91, 0x13, 0xbd, 0x21, 0x4b, 0xa1, 0xbe, 0xad, 0xf1, 0x2a, 0xbe, 0xfe, 0x26, 0x8b, 0x3e,
  0x5b, 0x45, 0xba, 0x3e, 0x67, 0x36, 0x16, 0xbd, 0xca, 0x16, 0xa6, 0x3e, 0xcd, 0x7d, 0x80, 0xbe,
  0x7d, 0x4e, 0x47, 0x3e, 0xc6, 0x65, 0x80, 0x3e, 0xbb, 0xe5, 0xbf, 0x3e, 0x57, 0x6b, 0xa2, 0x3d,
  0xa0, 0xc5, 0x08, 0xbe, 0x18, 0x0f, 0xcf, 0x3e, 0x8b, 0xef, 0x99, 0x3e, 0x0a, 0x82, 0xb5, 0xbd,
  0x7d, 0xe8, 0xd7, 0x3e, 0xa1, 0xa8, 0x56, 0xbe, 0xa9, 0xe3, 0x5f, 0xbe, 0xa3, 0x46, 0xb9, 0x3d,
  0x55, 0x26, 0xda, 0xbb, 0xcc, 0x52, 0x87, 0x3e, 0xc3, 0xbc, 0x60, 0x3e, 0xb2, 0x54, 0x38, 0x3e,
  0x54, 0xf7, 0x9f, 0xbe, 0x15, 0xd4, 0x63, 0x3d, 0x6f, 0x19, 0x03, 0x3e, 0x6b, 0x9d, 0xb9, 0xbd,
  0x25, 0xa5, 0x8b, 0x3e, 0x90, 0x97, 0x87, 0xbe, 0x22, 0x6b, 0x3a, 0x3c, 0x3c, 0x85, 0xf6, 0xbd,
  0x1e, 0xb4, 0xc5, 0xbe, 0xc5, 0x9f, 0xaf, 0xbb, 0x7b, 0x5c, 0xa0, 0x3d, 0xee, 0x3b, 0x10, 0x3e,
  0x03, 0xc0, 0x87, 0xbe, 0x85, 0xf5, 0x70, 0xbe, 0x8e, 0x65, 0x2b, 0xbd, 0x48, 0x73, 0xbe, 0xbe,
  0xc0, 0xdb, 0xef, 0x3d, 0xf3, 0xfb, 0x60, 0x3e, 0x04, 0x62, 0x95, 0x3e, 0xf4, 0x8a, 0x72, 0x3e,
  0xa2, 0x43, 0x19, 0x3e, 0xb5, 0xe1, 0x0d, 0xbe, 0x64, 0x7e, 0x26, 0xbd, 0x89, 0x57, 0x49, 0x3e,
  0xc9, 0x6c, 0x78, 0xbe, 0x49, 0x1b, 0xe3, 0x3e, 0x7c, 0x0c, 0x8e, 0x3e, 0xc1, 0xf9, 0xb5, 0x3e,
  0x53, 0xd6, 0xcc, 0x3e, 0x4f, 0xb8, 0x6a, 0xbd, 0xb6, 0x7c, 0xa5, 0xbd, 0x0d, 0x60, 0xe4, 0x3e,
  0xf8, 0x56, 0xee, 0x3e, 0x35, 0x29, 0x8e, 0xbd, 0x6a, 0xde, 0x03, 0xbe, 0x7d, 0xe2, 0x34, 0x3e,
  0xff, 0x79, 0x1e, 0xbd, 0x69, 0x32, 0x53, 0xbd, 0x54, 0x66, 0xfd, 0x3d, 0xb2, 0x55, 0xae, 0xbd,
  0x3a, 0x2d, 0xed, 0x3e, 0xc2, 0xf1, 0x87, 0x3e, 0x36, 0x68, 0xd1, 0x3e, 0x54, 0x78, 0xb8, 0xbd,
  0x84, 0x6b, 0x10, 0x3e, 0x75, 0xdb, 0x81, 0x3d, 0x99, 0xec, 0x8c, 0x3e, 0x51, 0x32, 0x93, 0x3d,
  0x2b, 0x98, 0xd6, 0x3d, 0x52, 0xa5, 0x9c, 0x3e, 0x43, 0x02, 0x68, 0x3e, 0xc9, 0xd6, 0xcf, 0x3e,
  0x8a, 0x0f, 0xea, 0xbc, 0x29, 0x1e, 0x77, 0x3e, 0x4b, 0x8c, 0x83, 0x3e, 0x3f, 0xfb, 0x04, 0x3f,
  0x46, 0x8f, 0x87, 0x3d, 0x4e, 0xf8, 0xff, 0xff, 0x04, 0x00, 0x00, 0x00, 0x80, 0x06, 0x00, 0x00,
  0x90, 0x9f, 0x14, 0x3e, 0x3d, 0x3f, 0xa1, 0xbe, 0xf8, 0x83, 0xed, 0xbd, 0x73, 0x59, 0xb5, 0xbd,
  0xc7, 0xad, 0xc0, 0xbd, 0x49, 0xbc, 0x34, 0x3e, 0xf7, 0x33, 0x97, 0xbc, 0x8f, 0x0f, 0x78, 0xbd,
  0x24, 0xd8, 0xda, 0x3e, 0x17, 0x4c, 0x06, 0x3e, 0x31, 0x18, 0x87, 0x3e, 0x60, 0x12, 0x8a, 0x3d,
  0x63, 0x30, 0xab, 0x3e, 0x01, 0xac, 0x42, 0xbe, 0x64, 0x43, 0xa9, 0x3d, 0x20, 0x04, 0x30, 0x3d,
  0x4b, 0x29, 0x39, 0x3e, 0x54, 0x3b, 0xa2, 0x3e, 0x21, 0xfe, 0x5b, 0x3e, 0x14, 0x35, 0x41, 0x3e,
  0x2c, 0xae, 0x8e, 0x3d, 0xc8, 0x55, 0x86, 0xbe, 0xc2, 0x58, 0xb6, 0xbe, 0xac, 0xbe, 0x49, 0x3d,
  0x6a, 0x92, 0xb4, 0x3e, 0xf5, 0x6d, 0x96, 0xbe, 0xc3, 0xe0, 0xba, 0xbe, 0x2e, 0x93, 0x63, 0xbd,
  0x21, 0x5c, 0x87, 0xbe, 0x33, 0x33, 0x65, 0xbe, 0x0d, 0xd5, 0x7a, 0xbe, 0x12, 0x59, 0x38, 0xbe,
  0xf1, 0x31, 0xe2, 0x3d, 0x66, 0x34, 0xb7, 0xbe, 0xbd, 0x21, 0xc3, 0x3d, 0xba, 0x7e, 0x57, 0xbe,
  0xde, 0xda, 0x3a, 0x3e, 0xe6, 0xe6, 0xee, 0xbd, 0x0a, 0x62, 0x24, 0x3e, 0xbb, 0xf3, 0xeb, 0xbd,
  0x77, 0x91, 0x1c, 0xbe, 0x81, 0xbe, 0xd4, 0xbe, 0x0b, 0xb0, 0xa9, 0x3d, 0x58, 0xcf, 0xed, 0xbd,
  0x82, 0x1b, 0xe2, 0xbd, 0x78, 0xa3, 0xb1, 0xbe, 0x30, 0xdd, 0x06, 0x3e, 0x1a, 0x5b, 0x44, 0x3e,
  0x9f, 0xc8, 0x87, 0x3d, 0x87, 0x17, 0x69, 0x3e, 0x05, 0x3a, 0x9b, 0x3e, 0xd0, 0x3f, 0x93, 0x3e,
  0x91, 0xa4, 0x9b, 0xbe, 0x87, 0x9c, 0x22, 0x3d, 0x44, 0x0c, 0xed, 0xbd, 0x67, 0x53, 0x85, 0xbe,
  0xf1, 0x84, 0x61, 0x3e, 0x20, 0x5e, 0x95, 0xbe, 0xb0, 0xf8, 0x62, 0xbe, 0x11, 0x85, 0xe4, 0xbe,
  0x31, 0xda, 0x83, 0x3d, 0xcc, 0xae, 0x67, 0x3e, 0x98, 0xd2, 0x8d, 0xbe, 0x6e, 0xd9, 0xe5, 0x3d,
  0x8d, 0x01, 0x4e, 0xbe, 0x88, 0xd9, 0x8e, 0x3e, 0x13, 0xf1, 0x3d, 0x3e, 0xaa, 0xde, 0xb3, 0xbc,
  0x87, 0xd4, 0x8a, 0x3e, 0xba, 0xc7, 0xad, 0xbd, 0x4b, 0xe6, 0x2d, 0xbe, 0x59, 0x87, 0x4b, 0x3e,
  0x0c, 0x32, 0xad, 0x3e, 0x6e, 0xd5, 0xe2, 0x3e, 0x23, 0xd8, 0x46, 0x3e, 0x31, 0x5a, 0xe0, 0xbd,
  0x05, 0x99, 0x53, 0xbe, 0x8f, 0x80, 0x8d, 0x3d, 0xde, 0xff, 0xa5, 0xbd, 0x58, 0x15, 0x1e, 0xbc,
  0x1d, 0x07, 0x86, 0x3e, 0xbf, 0x6f, 0x6a, 0xbd, 0xcb, 0x62, 0x75, 0xbd, 0x07, 0x27, 0x66, 0xbd,
  0xad, 0x0c, 0xd2, 0x3e, 0xcb, 0x66, 0x83, 0xbe, 0x0f, 0x0d, 0xce, 0xbc, 0xc5, 0x40, 0x4e, 0xbe,
  0x08, 0x1c, 0x64, 0xbe, 0x61, 0x17, 0xf0, 0x3c, 0x63, 0x8e, 0x60, 0xbe, 0xad, 0x6a, 0x9f, 0x3e,
  0x79, 0xb0, 0x43, 0xbe, 0xfa, 0xd5, 0xee, 0x3e, 0x1c, 0x1a, 0x40, 0xbe, 0xb2, 0x96, 0x7f, 0xbe,
  0x3a, 0x7a, 0x47, 0xbe, 0xe0, 0x62, 0x83, 0xbc, 0x5d, 0x1a, 0x20, 0xbe, 0xf8, 0xa7, 0xdf, 0x3d,
  0x49, 0xe2, 0x2b, 0x3d, 0xae, 0x6d, 0x93, 0xbe, 0xc6, 0x22, 0x09, 0x3e, 0xd8, 0x92, 0xb5, 0xbe,
  0x84, 0x3f, 0xdc, 0xbe, 0xba, 0x6b, 0xd4, 0x3e, 0x44, 0x85, 0x4c, 0xbd, 0x37, 0x8c, 0xa3, 0xbe,
  0x89, 0x4d, 0xa2, 0x3e, 0xcb, 0xbd, 0x17, 0x3a, 0xa6, 0xfe, 0x20, 0x3e, 0x6a, 0x63, 0x2e, 0xbd,
  0x14, 0xdb, 0x0a, 0xbc, 0x62, 0x34, 0x8f, 0x3d, 0x37, 0xf5, 0xe7, 0xbd, 0xca, 0x55, 0x98, 0xbd,
  0xf3, 0x4b, 0xbe, 0x3e, 0x31, 0x3a, 0x5d, 0x3e, 0x7f, 0x84, 0x71, 0xbd, 0x61, 0xfe, 0x02, 0x3d,
  0x94, 0x25, 0x5a, 0x3e, 0xdb, 0x81, 0xb1, 0xbd, 0x29, 0x4a, 0x4f, 0x3c, 0x96, 0xc5, 0xc2, 0xbd,
  0x21, 0xa1, 0x75, 0x3d, 0x50, 0x0c, 0x9b, 0x3c, 0xf9, 0x3b, 0x34, 0x3e, 0x29, 0xc8, 0xf4, 0x3d,
  0xa1, 0xed, 0x99, 0x3e, 0xc3, 0x13, 0xdd, 0x3c, 0xd8, 0xb7, 0x9c, 0xbd, 0x2d, 0xf9, 0xa4, 0xbe,
  0xa0, 0x9e, 0x8e, 0xbd, 0xe6, 0x5d, 0xd4, 0xbc, 0x3f, 0x1c, 0x7b, 0xbe, 0x96, 0x3b, 0x76, 0x3d,
  0xc5, 0x07, 0x0e, 0x3e, 0x8a, 0x0c, 0xd5, 0x3b, 0xa4, 0xf0, 0xa5, 0x3e, 0x09, 0xbc, 0xfa, 0x3d,
  0x86, 0x99, 0x56, 0x3e, 0x44, 0x97, 0x8d, 0xbe, 0x78, 0x79, 0x58, 0xbe, 0xd5, 0x09, 0x36, 0xbe,
  0xa9, 0x7f, 0x07, 0x3e, 0x56, 0x2b, 0xf1, 0xbd, 0x91, 0x7d, 0xdb, 0xbe, 0x04, 0x67, 0xb4, 0xbd,
  0x62, 0x19, 0x9e, 0x3e, 0xe6, 0xa3, 0x39, 0x3e, 0x7a, 0xa9, 0xbb, 0x3d, 0x41, 0x9e, 0x86, 0x3e,
  0xd2, 0xd0, 0x7d, 0xbe, 0x51, 0x4f, 0x8a, 0x3e, 0xe6, 0xeb, 0x8a, 0x3e, 0x6a, 0x51, 0x32, 0xbe,
  0xbc, 0x38, 0xa9, 0xbd, 0x81, 0x78, 0x05, 0xbe, 0x3a, 0xbd, 0x93, 0x3d, 0x98, 0x3f, 0x10, 0xbe,
  0x10, 0x2c, 0x74, 0xbe, 0xf1, 0x5a, 0xb8, 0x3e, 0x26, 0x87, 0x0d, 0x3f, 0x69, 0x9b, 0xd0, 0xbd,
  0x05, 0x34, 0x09, 0x3e, 0x1b, 0x4a, 0x70, 0x3e, 0x16, 0x6e, 0x45, 0x3e, 0x5c, 0x6e, 0xa2, 0xbe,
  0x3b, 0xeb, 0x6b, 0x3e, 0x80, 0x26, 0x38, 0xbd, 0xdd, 0xe2, 0x51, 0xbe, 0xb9, 0x21, 0x7b, 0xbe,
  0x1d, 0x04, 0x81, 0xbe, 0x01, 0x69, 0x95, 0xbe, 0xb3, 0xb2, 0xa7, 0xbe, 0xeb, 0x8a, 0x16, 0xbe,
  0xd9, 0x9d, 0x79, 0x3d, 0xd6, 0xff, 0xa0, 0xbe, 0x97, 0xc1, 0x96, 0x3e, 0x7f, 0x02, 0x8c, 0x3d,
  0xcb, 0xa1, 0x05, 0xbc, 0x51, 0x54, 0x85, 0x3e, 0x3f, 0x44, 0x83, 0xbd, 0x81, 0x05, 0x8e, 0x3e,
  0xcf, 0xd6, 0x8e, 0x3d, 0x3c, 0x0c, 0x04, 0xbf, 0xbd, 0x96, 0xf1, 0xbe, 0x7f, 0xc0, 0xfa, 0x3d,
  0x14, 0xba, 0x26, 0xbe, 0xc6, 0x9b, 0xdf, 0xbd, 0xdc, 0x90, 0x37, 0xbe, 0xd3, 0x74, 0x2c, 0x3e,
  0x45, 0x07, 0xc4, 0x3d, 0x5e, 0x88, 0x6b, 0xbd, 0xe0, 0x16, 0xef, 0xbe, 0xa3, 0x5c, 0x5e, 0xbe,
  0x61, 0x76, 0x01, 0x3c, 0x84, 0xc4, 0x18, 0x3e, 0x6b, 0xec, 0x59, 0xbe, 0xdf, 0x6c, 0x22, 0xbe,
  0x01, 0x5c, 0x35, 0xbe, 0x4b, 0x52, 0x1c, 0x3e, 0x26, 0x0e, 0x98, 0x3e, 0x04, 0xb3, 0x81, 0x3d,
  0xcb, 0x15, 0xa8, 0xbe, 0x8a, 0x37, 0x63, 0x3e, 0x81, 0x3b, 0x0c, 0x3e, 0xf1, 0x1f, 0x2b, 0xbe,
  0x6f, 0x1e, 0x77, 0xbd, 0x54, 0x23, 0x21, 0xbe, 0x8e, 0x03, 0xe7, 0xbd, 0xbc, 0x9d, 0x16, 0x3f,
  0x35, 0x2c, 0xce, 0x3e, 0x57, 0x4f, 0x6b, 0x3e, 0xae, 0xee, 0xae, 0x3c, 0xef, 0x79, 0x58, 0xbd,
  0x58, 0xc1, 0x28, 0xbc, 0xc9, 0xcd, 0x03, 0x3e, 0x8f, 0x45, 0x2f, 0xbd, 0x5d, 0x4f, 0x0d, 0x3a,
  0x79, 0x5b, 0xe9, 0x3d, 0x1e, 0x7f, 0x46, 0xbd, 0x42, 0xab, 0x1c, 0xbe, 0xd5, 0x1e, 0x6a, 0xbe,
  0x8e, 0xa3, 0xd0, 0xbe, 0xae, 0xbd, 0x17, 0x3e, 0x0f, 0x9e, 0x18, 0x3e, 0x25, 0x6b, 0xee, 0xbd,
  0xef, 0x9a, 0x24, 0xbd, 0x98, 0x6c, 0xba, 0xbe, 0x0f, 0x97, 0xc8, 0xbe, 0x74, 0x1d, 0xa7, 0x3e,
  0xce, 0x77, 0x87, 0x3e, 0x2e, 0x01, 0x0e, 0xbe, 0x96, 0x21, 0x05, 0x3e, 0xd4, 0x6c, 0x04, 0xbe,
  0x28, 0x63, 0x09, 0xbe, 0x5f, 0xf2, 0x30, 0x3e, 0x30, 0x0e, 0xa2, 0xbe, 0x3e, 0x6c, 0x31, 0xbb,
  0x78, 0x77, 0xd6, 0x3d, 0x57, 0x2d, 0xab, 0xbe, 0x46, 0x62, 0x6c, 0xbe, 0xa5, 0xae, 0x4f, 0x3d,
  0x50, 0xed, 0x15, 0xbd, 0xa2, 0xa0, 0x86, 0xbd, 0xb1, 0x64, 0xf4, 0x3d, 0xb6, 0x58, 0x4e, 0xbe,
  0x70, 0xad, 0xc7, 0x3e, 0xe1, 0x25, 0x36, 0x3e, 0x3c, 0x04, 0x70, 0x3e, 0xe2, 0x2e, 0x3c, 0x3e,
  0x3a, 0xdd, 0xa0, 0xbe, 0x2d, 0x9e, 0x31, 0x3e, 0x9a, 0xf5, 0x95, 0x3e, 0xdb, 0x89, 0xf0, 0x3c,
  0x78, 0xe9, 0xe6, 0x3d, 0xa2, 0x72, 0xb9, 0x3e, 0x0f, 0xe1, 0x56, 0xbe, 0x75, 0xd0, 0x37, 0x3e,
  0x7c, 0x3e, 0xdd, 0xbd, 0xa9, 0x2d, 0xc0, 0xbb, 0x1c, 0x21, 0x81, 0xbd, 0x9b, 0x08, 0xa8, 0x3d,
  0x43, 0x27, 0x82, 0x3e, 0x10, 0x75, 0x08, 0x3e, 0x8a, 0xf6, 0x5c, 0xbe, 0x8c, 0x8e, 0xa1, 0xbe,
  0x79, 0x44, 0xc9, 0x3e, 0x09, 0xe4, 0x84, 0x3e, 0x55, 0x9c, 0x4e, 0xbe, 0xe2, 0x68, 0x4b, 0x3e,
  0x9d, 0xb9, 0x97, 0x3e, 0xd0, 0x0b, 0x6d, 0xbe, 0xa0, 0xd1, 0xd7, 0x3e, 0x5a, 0xa7, 0x84, 0xbe,
  0x13, 0xc3, 0xb7, 0x3d, 0x83, 0x64, 0xf0, 0x3d, 0xf1, 0xcb, 0x13, 0x3e, 0x73, 0x4d, 0x6f, 0x3d,
  0x9f, 0x73, 0x1c, 0x3e, 0x46, 0x88, 0x01, 0xbe, 0xaa, 0xde, 0x8a, 0xbe, 0xc1, 0x24, 0x30, 0x3e,
  0xb2, 0x15, 0xca, 0xbe, 0x32, 0x7f, 0x92, 0xbd, 0x6d, 0x7e, 0x58, 0x3e, 0xb2, 0x36, 0x3b, 0x3d,
  0x79, 0xab, 0xa8, 0xbe, 0xa0, 0x70, 0x9e, 0xbc, 0x43, 0x3c, 0xa5, 0xbd, 0x37, 0x43, 0x94, 0x3e,
  0x0b, 0xbc, 0x7c, 0xbe, 0xfc, 0x5e, 0xbc, 0xbc, 0xc8, 0x07, 0xb0, 0xbd, 0xaf, 0x65, 0x94, 0x3e,
  0x0b, 0x7f, 0x58, 0xbd, 0xe8, 0x00, 0xaf, 0xbe, 0x34, 0x8c, 0x95, 0xbd, 0x00, 0xe7, 0x62, 0xbe,
  0x8f, 0x77, 0x41, 0x3e, 0x23, 0x55, 0xca, 0x3a, 0xb1, 0x9c, 0x5c, 0x3e, 0x25, 0x33, 0xab, 0xbe,
  0x97, 0xfc, 0x6c, 0xbe, 0xb4, 0x76, 0xab, 0xbd, 0x74, 0xa2, 0x3e, 0x3e, 0xb4, 0x03, 0x04, 0x3e,
  0x1c, 0x53, 0xb6, 0x3d, 0x3e, 0x42, 0x3b, 0xbe, 0xf3, 0x0c, 0x48, 0xbc, 0x05, 0xcf, 0x4a, 0xbe,
  0x52, 0xec, 0x05, 0xbe, 0x0d, 0x75, 0x7e, 0xbe, 0x39, 0xba, 0x50, 0x3e, 0xa3, 0x64, 0xb9, 0x3e,
  0xed, 0x6e, 0xbb, 0x3e, 0x85, 0xc3, 0x63, 0xbd, 0x7f, 0x00, 0x07, 0xbe, 0xa9, 0x0d, 0x87, 0x3e,
  0x44, 0x04, 0x2c, 0x3d, 0xaf, 0x3b, 0xb9, 0x3d, 0x06, 0xe7, 0xdf, 0xbc, 0xa2, 0x1c, 0x74, 0xbe,
  0x3d, 0x0b, 0xcb, 0xbe, 0x50, 0xa0, 0x23, 0x3d, 0x5e, 0xc6, 0xbe, 0x3e, 0x66, 0x61, 0xcd, 0xbe,
  0xec, 0x4d, 0xe9, 0xbd, 0x19, 0xa0, 0x18, 0xbd, 0xb7, 0x17, 0x84, 0x3d, 0x36, 0xf2, 0x82, 0x3e,
  0x47, 0x0a, 0x30, 0xbe, 0x6f, 0x13, 0x00, 0xbe, 0x55, 0xd9, 0x5f, 0xbe, 0x45, 0x58, 0x72, 0xbd,
  0x77, 0xe6, 0xdd, 0x3d, 0x74, 0x51, 0x93, 0x3e, 0xcb, 0x4b, 0xef, 0x3d, 0xfe, 0xef, 0xd0, 0xbd,
  0xf1, 0xac, 0xc0, 0xbe, 0x9a, 0xa0, 0xd0, 0x3d, 0x58, 0xb8, 0x88, 0xbe, 0xa3, 0xa2, 0xaa, 0xbd,
  0x70, 0x41, 0x0d, 0x3f, 0x33, 0x78, 0x0f, 0xbe, 0x02, 0x2d, 0x8b, 0x3e, 0x41, 0x76, 0x4d, 0xbd,
  0xc9, 0x58, 0x92, 0xbd, 0x56, 0xcc, 0x6b, 0x3e, 0x60, 0xd0, 0x3b, 0x3e, 0x9c, 0x88, 0x04, 0x3e,
  0xe5, 0xd8, 0x87, 0x3e, 0xa5, 0x31, 0x83, 0xbe, 0x87, 0xa0, 0x72, 0xbe, 0xc4, 0x7e, 0x89, 0x3e,
  0xf6, 0xbc, 0xee, 0x3e, 0xb0, 0xec, 0x1b, 0xbc, 0x2d, 0xec, 0x0c, 0x3e, 0x8a, 0x08, 0x6c, 0x3d,
  0xca, 0xa6, 0x50, 0xbe, 0xbd, 0x8b, 0x8b, 0xbe, 0x1b, 0xcd, 0x3b, 0x3d, 0x43, 0xcd, 0x15, 0xbe,
  0xed, 0x98, 0x9e, 0xbd, 0xcb, 0xf2, 0x82, 0xbc, 0x19, 0xec, 0x8d, 0x3e, 0x98, 0xf2, 0x39, 0x3e,
  0x87, 0x03, 0x9d, 0x3e, 0x44, 0x7e, 0x10, 0xbe, 0x30, 0x2a, 0x82, 0x3c, 0xfd, 0xb9, 0xb3, 0x3d,
  0x30, 0x0f, 0x59, 0x3e, 0x71, 0xcd, 0x5b, 0x3d, 0xb6, 0x49, 0xa8, 0xbe, 0x0b, 0xb8, 0x57, 0xbd,
  0xbc, 0x5f, 0x31, 0xbd, 0xec, 0xba, 0x97, 0x3e, 0x23, 0x0c, 0xf6, 0x3d, 0xff, 0x55, 0x8d, 0xbe,
  0xcc, 0x06, 0x1a, 0xbe, 0xaf, 0xbd, 0xb3, 0x3e, 0xae, 0xd7, 0x32, 0x3d, 0x54, 0x36, 0x99, 0x3d,
  0xde, 0x06, 0xbc, 0x3e, 0x3d, 0x8a, 0x8e, 0x3d, 0x5b, 0xd6, 0x29, 0x3d, 0xa3, 0x25, 0x7b, 0xbe,
  0x81, 0x51, 0xc6, 0x3e, 0x3f, 0x27, 0x9f, 0xbe, 0x5c, 0x4b, 0x84, 0xbd, 0xc8, 0xa0, 0x2a, 0x3e,
  0x24, 0x6f, 0x89, 0x3e, 0x56, 0x36, 0x5a, 0xbe, 0xba, 0x8d, 0x09, 0x3e, 0x19, 0x95, 0xdf, 0x3c,
  0x31, 0x42, 0x86, 0x3e, 0x64, 0x9f, 0x12, 0x3e, 0xe9, 0xe9, 0x8d, 0xbe, 0x5d, 0x59, 0xb8, 0x3e,
  0xfa, 0x6a, 0x70, 0xbe, 0xf3, 0xa9, 0xa6, 0xbe, 0xe5, 0xf7, 0xd0, 0x3d, 0x67, 0xe4, 0x01, 0x3e,
  0xae, 0x86, 0x41, 0xbe, 0x59, 0x18, 0xba, 0xbd, 0x57, 0x7c, 0xba, 0xbe, 0x15, 0x13, 0x62, 0xbe,
  0xf0, 0x09, 0xc7, 0x3d, 0xdd, 0x68, 0xb5, 0x3d, 0x29, 0xdc, 0x83, 0x3e, 0x68, 0x8b, 0x31, 0x3e,
  0xa1, 0x34, 0x1f, 0x3e, 0x50, 0x53, 0x87, 0xbe, 0xaa, 0x4e, 0x3a, 0xbd, 0xac, 0xf9, 0xb5, 0xbe,
  0xda, 0xfe, 0xff, 0xff, 0x04, 0x00, 0x00, 0x00, 0x80, 0x00, 0x00, 0x00, 0x2b, 0xd7, 0x05, 0xbd,
  0x9e, 0x76, 0xac, 0x3d, 0xbe, 0xb2, 0x07, 0x3d, 0x2e, 0xf0, 0x84, 0x3d, 0x1c, 0xe5, 0x29, 0xbd,
  0x86, 0xdc, 0x82, 0xbe, 0x33, 0xa5, 0x8f, 0x3b, 0x3c, 0xe6, 0x8e, 0xbc, 0x37, 0x36, 0xad, 0x3d,
  0xe2, 0xd8, 0x13, 0x3e, 0x39, 0xf2, 0xff, 0x3c, 0x90, 0x05, 0x88, 0xbd, 0xf2, 0xed, 0x2d, 0xbc,
  0x56, 0x92, 0xe7, 0x3d, 0x4c, 0x68, 0x91, 0xbd, 0xe1, 0xee, 0x21, 0x3e, 0xb9, 0xdd, 0xfa, 0xbc,
  0xc4, 0x7d, 0x48, 0x3d, 0x73, 0xff, 0x33, 0x3d, 0xc5, 0xed, 0x49, 0x3d, 0xd4, 0xaa, 0x16, 0xbc,
  0xac, 0x08, 0xe6, 0x3d, 0x5e, 0x9d, 0x18, 0x3d, 0x92, 0x3f, 0x4d, 0xbd, 0x28, 0x11, 0x1d, 0x3c,
  0x45, 0x3c, 0x25, 0x3e, 0x2e, 0x50, 0x99, 0x3d, 0x9f, 0x90, 0x22, 0x3e, 0x67, 0xb1, 0xa9, 0xbd,
  0xcc, 0x53, 0xac, 0x3d, 0x64, 0xef, 0x55, 0xbb, 0x40, 0xce, 0xb5, 0x3d, 0xc4, 0xf6, 0xff, 0xff,
  0xc8, 0xf6, 0xff, 0xff, 0x0f, 0x00, 0x00, 0x00, 0x4d, 0x4c, 0x49, 0x52, 0x20, 0x43, 0x6f, 0x6e,
  0x76, 0x65, 0x72, 0x74, 0x65, 0x64, 0x2e, 0x00, 0x01, 0x00, 0x00, 0x00, 0x14, 0x00, 0x00, 0x00,
  0x00, 0x00, 0x0e, 0x00, 0x18, 0x00, 0x14, 0x00, 0x10, 0x00, 0x0c, 0x00, 0x08, 0x00, 0x04, 0x00,
  0x0e, 0x00, 0x00, 0x00, 0x14, 0x00, 0x00, 0x00, 0x1c, 0x00, 0x00, 0x00, 0x78, 0x01, 0x00, 0x00,
  0x7c, 0x01, 0x00, 0x00, 0x80, 0x01, 0x00, 0x00, 0x04, 0x00, 0x00, 0x00, 0x6d, 0x61, 0x69, 0x6e,
  0x00, 0x00, 0x00, 0x00, 0x05, 0x00, 0x00, 0x00, 0x20, 0x01, 0x00, 0x00, 0xcc, 0x00, 0x00, 0x00,
  0x84, 0x00, 0x00, 0x00, 0x50, 0x00, 0x00, 0x00, 0x14, 0x00, 0x00, 0x00, 0x00, 0x00, 0x0e, 0x00,
  0x1a, 0x00, 0x14, 0x00, 0x10, 0x00, 0x0c, 0x00, 0x0b, 0x00, 0x04, 0x00, 0x0e, 0x00, 0x00, 0x00,
  0x1c, 0x00, 0x00, 0x00, 0x00, 0x00, 0x00, 0x09, 0x1c, 0x00, 0x00, 0x00, 0x20, 0x00, 0x00, 0x00,
  0x01, 0x00, 0x00, 0x00, 0x00, 0x00, 0x06, 0x00, 0x08, 0x00, 0x04, 0x00, 0x06, 0x00, 0x00, 0x00,
  0x00, 0x00, 0x80, 0x3f, 0x01, 0x00, 0x00, 0x00, 0x0d, 0x00, 0x00, 0x00, 0x01, 0x00, 0x00, 0x00,
  0x0c, 0x00, 0x00, 0x00, 0x9a, 0xff, 0xff, 0xff, 0x10, 0x00, 0x00, 0x00, 0x00, 0x00, 0x00, 0x08,
  0x0c, 0x00, 0x00, 0x00, 0x10, 0x00, 0x00, 0x00, 0x90, 0xf7, 0xff, 0xff, 0x01, 0x00, 0x00, 0x00,
  0x0c, 0x00, 0x00, 0x00, 0x03, 0x00, 0x00, 0x00, 0x0b, 0x00, 0x00, 0x00, 0x04, 0x00, 0x00, 0x00,
  0x05, 0x00, 0x00, 0x00, 0xca, 0xff, 0xff, 0xff, 0x10, 0x00, 0x00, 0x00, 0x00, 0x00, 0x00, 0x08,
  0x10, 0x00, 0x00, 0x00, 0x14, 0x00, 0x00, 0x00, 0x6a, 0xff, 0xff, 0xff, 0x00, 0x00, 0x00, 0x01,
  0x01, 0x00, 0x00, 0x00, 0x0b, 0x00, 0x00, 0x00, 0x03, 0x00, 0x00, 0x00, 0x0a, 0x00, 0x00, 0x00,
  0x03, 0x00, 0x00, 0x00, 0x07, 0x00, 0x00, 0x00, 0x00, 0x00, 0x0e, 0x00, 0x14, 0x00, 0x00, 0x00,
  0x10, 0x00, 0x0c, 0x00, 0x0b, 0x00, 0x04, 0x00, 0x0e, 0x00, 0x00, 0x00, 0x1c, 0x00, 0x00, 0x00,
  0x00, 0x00, 0x00, 0x08, 0x1c, 0x00, 0x00, 0x00, 0x20, 0x00, 0x00, 0x00, 0x0c, 0x00, 0x08, 0x00,
  0x07, 0x00, 0x00, 0x00, 0x00, 0x00, 0x06, 0x00, 0x0c, 0x00, 0x00, 0x00, 0x00, 0x00, 0x01, 0x01,
  0x01, 0x00, 0x00, 0x00, 0x0a, 0x00, 0x00, 0x00, 0x03, 0x00, 0x00, 0x00, 0x09, 0x00, 0x00, 0x00,
  0x08, 0x00, 0x00, 0x00, 0x06, 0x00, 0x00, 0x00, 0x00, 0x00, 0x0e, 0x00, 0x16, 0x00, 0x00, 0x00,
  0x10, 0x00, 0x0c, 0x00, 0x0b, 0x00, 0x04, 0x00, 0x0e, 0x00, 0x00, 0x00, 0x18, 0x00, 0x00, 0x00,
  0x00, 0x00, 0x00, 0x08, 0x18, 0x00, 0x00, 0x00, 0x1c, 0x00, 0x00, 0x00, 0x00, 0x00, 0x06, 0x00,
  0x08, 0x00, 0x07, 0x00, 0x06, 0x00, 0x00, 0x00, 0x00, 0x00, 0x00, 0x01, 0x01, 0x00, 0x00, 0x00,
  0x09, 0x00, 0x00, 0x00, 0x03, 0x00, 0x00, 0x00, 0x00, 0x00, 0x00, 0x00, 0x02, 0x00, 0x00, 0x00,
  0x01, 0x00, 0x00, 0x00, 0x01, 0x00, 0x00, 0x00, 0x0d, 0x00, 0x00, 0x00, 0x01, 0x00, 0x00, 0x00,
  0x00, 0x00, 0x00, 0x00, 0x0e, 0x00, 0x00, 0x00, 0x48, 0x07, 0x00, 0x00, 0xf4, 0x06, 0x00, 0x00,
  0x9c, 0x06, 0x00, 0x00, 0x5c, 0x06, 0x00, 0x00, 0x1c, 0x06, 0x00, 0x00, 0xe0, 0x05, 0x00, 0x00,
  0xa4, 0x05, 0x00, 0x00, 0x68, 0x05, 0x00, 0x00, 0x80, 0x03, 0x00, 0x00, 0xc0, 0x02, 0x00, 0x00,
  0x9c, 0x01, 0x00, 0x00, 0xec, 0x00, 0x00, 0x00, 0x60, 0x00, 0x00, 0x00, 0x04, 0x00, 0x00, 0x00,
  0x06, 0xf9, 0xff, 0xff, 0x00, 0x00, 0x00, 0x01, 0x14, 0x00, 0x00, 0x00, 0x1c, 0x00, 0x00, 0x00,
  0x1c, 0x00, 0x00, 0x00, 0x0e, 0x00, 0x00, 0x00, 0x34, 0x00, 0x00, 0x00, 0x02, 0x00, 0x00, 0x00,
  0xff, 0xff, 0xff, 0xff, 0x03, 0x00, 0x00, 0x00, 0xf0, 0xf8, 0xff, 0xff, 0x1b, 0x00, 0x00, 0x00,
  0x53, 0x74, 0x61, 0x74, 0x65, 0x66, 0x75, 0x6c, 0x50, 0x61, 0x72, 0x74, 0x69, 0x74, 0x69, 0x6f,
  0x6e, 0x65, 0x64, 0x43, 0x61, 0x6c, 0x6c, 0x5f, 0x31, 0x3a, 0x30, 0x00, 0x02, 0x00, 0x00, 0x00,
  0x01, 0x00, 0x00, 0x00, 0x03, 0x00, 0x00, 0x00, 0x5e, 0xf9, 0xff, 0xff, 0x00, 0x00, 0x00, 0x01,
  0x14, 0x00, 0x00, 0x00, 0x1c, 0x00, 0x00, 0x00, 0x1c, 0x00, 0x00, 0x00, 0x0d, 0x00, 0x00, 0x00,
  0x64, 0x00, 0x00, 0x00, 0x02, 0x00, 0x00, 0x00, 0xff, 0xff, 0xff, 0xff, 0x03, 0x00, 0x00, 0x00,
  0x48, 0xf9, 0xff, 0xff, 0x4a, 0x00, 0x00, 0x00, 0x6d, 0x65, 0x74, 0x65, 0x6f, 0x5f, 0x68, 0x31,
  0x5f, 0x65, 0x6d, 0x62, 0x65, 0x64, 0x64, 0x65, 0x64, 0x5f, 0x31, 0x2f, 0x64, 0x65, 0x6e, 0x73,
  0x65, 0x5f, 0x33, 0x5f, 0x31, 0x2f, 0x4d, 0x61, 0x74, 0x4d, 0x75, 0x6c, 0x3b, 0x6d, 0x65, 0x74,
  0x65, 0x6f, 0x5f, 0x68, 0x31, 0x5f, 0x65, 0x6d, 0x62, 0x65, 0x64, 0x64, 0x65, 0x64, 0x5f, 0x31,
  0x2f, 0x64, 0x65, 0x6e, 0x73, 0x65, 0x5f, 0x33, 0x5f, 0x31, 0x2f, 0x42, 0x69, 0x61, 0x73, 0x41,
  0x64, 0x64, 0x00, 0x00, 0x02, 0x00, 0x00, 0x00, 0x01, 0x00, 0x00, 0x00, 0x03, 0x00, 0x00, 0x00,
  0xe6, 0xf9, 0xff, 0xff, 0x00, 0x00, 0x00, 0x01, 0x14, 0x00, 0x00, 0x00, 0x1c, 0x00, 0x00, 0x00,
  0x1c, 0x00, 0x00, 0x00, 0x0c, 0x00, 0x00, 0x00, 0x88, 0x00, 0x00, 0x00, 0x02, 0x00, 0x00, 0x00,
  0xff, 0xff, 0xff, 0xff, 0x10, 0x00, 0x00, 0x00, 0xd0, 0xf9, 0xff, 0xff, 0x6d, 0x00, 0x00, 0x00,
  0x6d, 0x65, 0x74, 0x65, 0x6f, 0x5f, 0x68, 0x31, 0x5f, 0x65, 0x6d, 0x62, 0x65, 0x64, 0x64, 0x65,
  0x64, 0x5f, 0x31, 0x2f, 0x64, 0x65, 0x6e, 0x73, 0x65, 0x5f, 0x32, 0x5f, 0x31, 0x2f, 0x4d, 0x61,
  0x74, 0x4d, 0x75, 0x6c, 0x3b, 0x6d, 0x65, 0x74, 0x65, 0x6f, 0x5f, 0x68, 0x31, 0x5f, 0x65, 0x6d,
  0x62, 0x65, 0x64, 0x64, 0x65, 0x64, 0x5f, 0x31, 0x2f, 0x64, 0x65, 0x6e, 0x73, 0x65, 0x5f, 0x32,
  0x5f, 0x31, 0x2f, 0x52, 0x65, 0x6c, 0x75, 0x3b, 0x6d, 0x65, 0x74, 0x65, 0x6f, 0x5f, 0x68, 0x31,
  0x5f, 0x65, 0x6d, 0x62, 0x65, 0x64, 0x64, 0x65, 0x64, 0x5f, 0x31, 0x2f, 0x64, 0x65, 0x6e, 0x73,
  0x65, 0x5f, 0x32, 0x5f, 0x31, 0x2f, 0x42, 0x69, 0x61, 0x73, 0x41, 0x64, 0x64, 0x00, 0x00, 0x00,
  0x02, 0x00, 0x00, 0x00, 0x01, 0x00, 0x00, 0x00, 0x10, 0x00, 0x00, 0x00, 0x92, 0xfa, 0xff, 0xff,
  0x00, 0x00, 0x00, 0x01, 0x14, 0x00, 0x00, 0x00, 0x1c, 0x00, 0x00, 0x00, 0x1c, 0x00, 0x00, 0x00,
  0x0b, 0x00, 0x00, 0x00, 0xfc, 0x00, 0x00, 0x00, 0x02, 0x00, 0x00, 0x00, 0xff, 0xff, 0xff, 0xff,
  0x20, 0x00, 0x00, 0x00, 0x7c, 0xfa, 0xff, 0xff, 0xe1, 0x00, 0x00, 0x00, 0x6d, 0x65, 0x74, 0x65,
  0x6f, 0x5f, 0x68, 0x31, 0x5f, 0x65, 0x6d, 0x62, 0x65, 0x64, 0x64, 0x65, 0x64, 0x5f, 0x31, 0x2f,
  0x62, 0x61, 0x74, 0x63, 0x68, 0x5f, 0x6e, 0x6f, 0x72, 0x6d, 0x61, 0x6c, 0x69, 0x7a, 0x61, 0x74,
  0x69, 0x6f, 0x6e, 0x5f, 0x31, 0x2f, 0x62, 0x61, 0x74, 0x63, 0x68, 0x6e, 0x6f, 0x72, 0x6d, 0x2f,
  0x6d, 0x75, 0x6c, 0x5f, 0x31, 0x3b, 0x6d, 0x65, 0x74, 0x65, 0x6f, 0x5f, 0x68, 0x31, 0x5f, 0x65,
  0x6d, 0x62, 0x65, 0x64, 0x64, 0x65, 0x64, 0x5f, 0x31, 0x2f, 0x62, 0x61, 0x74, 0x63, 0x68, 0x5f,
  0x6e, 0x6f, 0x72, 0x6d, 0x61, 0x6c, 0x69, 0x7a, 0x61, 0x74, 0x69, 0x6f, 0x6e, 0x5f, 0x31, 0x2f,
  0x62, 0x61, 0x74, 0x63, 0x68, 0x6e, 0x6f, 0x72, 0x6d, 0x2f, 0x61, 0x64, 0x64, 0x5f, 0x31, 0x3b,
  0x6d, 0x65, 0x74, 0x65, 0x6f, 0x5f, 0x68, 0x31, 0x5f, 0x65, 0x6d, 0x62, 0x65, 0x64, 0x64, 0x65,
  0x64, 0x5f, 0x31, 0x2f, 0x64, 0x65, 0x6e, 0x73, 0x65, 0x5f, 0x31, 0x5f, 0x32, 0x2f, 0x4d, 0x61,
  0x74, 0x4d, 0x75, 0x6c, 0x3b, 0x6d, 0x65, 0x74, 0x65, 0x6f, 0x5f, 0x68, 0x31, 0x5f, 0x65, 0x6d,
  0x62, 0x65, 0x64, 0x64, 0x65, 0x64, 0x5f, 0x31, 0x2f, 0x64, 0x65, 0x6e, 0x73, 0x65, 0x5f, 0x31,
  0x5f, 0x32, 0x2f, 0x52, 0x65, 0x6c, 0x75, 0x3b, 0x6d, 0x65, 0x74, 0x65, 0x6f, 0x5f, 0x68, 0x31,
  0x5f, 0x65, 0x6d, 0x62, 0x65, 0x64, 0x64, 0x65, 0x64, 0x5f, 0x31, 0x2f, 0x64, 0x65, 0x6e, 0x73,
  0x65, 0x5f, 0x31, 0x5f, 0x32, 0x2f, 0x42, 0x69, 0x61, 0x73, 0x41, 0x64, 0x64, 0x00, 0x00, 0x00,
  0x02, 0x00, 0x00, 0x00, 0x01, 0x00, 0x00, 0x00, 0x20, 0x00, 0x00, 0x00, 0xb2, 0xfb, 0xff, 0xff,
  0x00, 0x00, 0x00, 0x01, 0x14, 0x00, 0x00, 0x00, 0x1c, 0x00, 0x00, 0x00, 0x1c, 0x00, 0x00, 0x00,
  0x0a, 0x00, 0x00, 0x00, 0x80, 0x00, 0x00, 0x00, 0x02, 0x00, 0x00, 0x00, 0xff, 0xff, 0xff, 0xff,
  0x20, 0x00, 0x00, 0x00, 0x9c, 0xfb, 0xff, 0xff, 0x67, 0x00, 0x00, 0x00, 0x6d, 0x65, 0x74, 0x65,
  0x6f, 0x5f, 0x68, 0x31, 0x5f, 0x65, 0x6d, 0x62, 0x65, 0x64, 0x64, 0x65, 0x64, 0x5f, 0x31, 0x2f,
  0x64, 0x65, 0x6e, 0x73, 0x65, 0x5f, 0x31, 0x2f, 0x4d, 0x61, 0x74, 0x4d, 0x75, 0x6c, 0x3b, 0x6d,
  0x65, 0x74, 0x65, 0x6f, 0x5f, 0x68, 0x31, 0x5f, 0x65, 0x6d, 0x62, 0x65, 0x64, 0x64, 0x65, 0x64,
  0x5f, 0x31, 0x2f, 0x64, 0x65, 0x6e, 0x73, 0x65, 0x5f, 0x31, 0x2f, 0x52, 0x65, 0x6c, 0x75, 0x3b,
  0x6d, 0x65, 0x74, 0x65, 0x6f, 0x5f, 0x68, 0x31, 0x5f, 0x65, 0x6d, 0x62, 0x65, 0x64, 0x64, 0x65,
  0x64, 0x5f, 0x31, 0x2f, 0x64, 0x65, 0x6e, 0x73, 0x65, 0x5f, 0x31, 0x2f, 0x42, 0x69, 0x61, 0x73,
  0x41, 0x64, 0x64, 0x00, 0x02, 0x00, 0x00, 0x00, 0x01, 0x00, 0x00, 0x00, 0x20, 0x00, 0x00, 0x00,
  0x00, 0x00, 0x16, 0x00, 0x1c, 0x00, 0x18, 0x00, 0x17, 0x00, 0x10, 0x00, 0x0c, 0x00, 0x08, 0x00,
  0x00, 0x00, 0x00, 0x00, 0x00, 0x00, 0x07, 0x00, 0x16, 0x00, 0x00, 0x00, 0x00, 0x00, 0x00, 0x01,
  0x20, 0x00, 0x00, 0x00, 0xb4, 0x01, 0x00, 0x00, 0x09, 0x00, 0x00, 0x00, 0x00, 0x00, 0x00, 0x09,
  0xc0, 0x01, 0x00, 0x00, 0x0c, 0x00, 0x0c, 0x00, 0x00, 0x00, 0x00, 0x00, 0x08, 0x00, 0x04, 0x00,
  0x0c, 0x00, 0x00, 0x00, 0x08, 0x00, 0x00, 0x00, 0x0c, 0x01, 0x00, 0x00, 0x20, 0x00, 0x00, 0x00,
  0x00, 0x00, 0x00, 0x00, 0x00, 0x00, 0x00, 0x00, 0x00, 0x00, 0x00, 0x00, 0x00, 0x00, 0x00, 0x00,
  0x00, 0x00, 0x00, 0x00, 0x00, 0x00, 0x00, 0x00, 0x00, 0x00, 0x00, 0x00, 0x00, 0x00, 0x00, 0x00,
  0x00, 0x00, 0x00, 0x00, 0x00, 0x00, 0x00, 0x00, 0x00, 0x00, 0x00, 0x00, 0x00, 0x00, 0x00, 0x00,
  0x00, 0x00, 0x00, 0x00, 0x00, 0x00, 0x00, 0x00, 0x00, 0x00, 0x00, 0x00, 0x00, 0x00, 0x00, 0x00,
  0x00, 0x00, 0x00, 0x00, 0x00, 0x00, 0x00, 0x00, 0x00, 0x00, 0x00, 0x00, 0x00, 0x00, 0x00, 0x00,
  0x00, 0x00, 0x00, 0x00, 0x00, 0x00, 0x00, 0x00, 0x00, 0x00, 0x00, 0x00, 0x00, 0x00, 0x00, 0x00,
  0x00, 0x00, 0x00, 0x00, 0x00, 0x00, 0x00, 0x00, 0x00, 0x00, 0x00, 0x00, 0x00, 0x00, 0x00, 0x00,
  0x00, 0x00, 0x00, 0x00, 0x00, 0x00, 0x00, 0x00, 0x00, 0x00, 0x00, 0x00, 0x00, 0x00, 0x00, 0x00,
  0x00, 0x00, 0x00, 0x00, 0x00, 0x00, 0x00, 0x00, 0x00, 0x00, 0x00, 0x00, 0x00, 0x00, 0x00, 0x00,
  0x00, 0x00, 0x00, 0x00, 0x00, 0x00, 0x00, 0x00, 0x00, 0x00, 0x00, 0x00, 0x00, 0x00, 0x00, 0x00,
  0x00, 0x00, 0x00, 0x00, 0x00, 0x00, 0x00, 0x00, 0x00, 0x00, 0x00, 0x00, 0x00, 0x00, 0x00, 0x00,
  0x00, 0x00, 0x00, 0x00, 0x00, 0x00, 0x00, 0x00, 0x00, 0x00, 0x00, 0x00, 0x00, 0x00, 0x00, 0x00,
  0x00, 0x00, 0x00, 0x00, 0x00, 0x00, 0x00, 0x00, 0x00, 0x00, 0x00, 0x00, 0x00, 0x00, 0x00, 0x00,
  0x00, 0x00, 0x00, 0x00, 0x00, 0x00, 0x00, 0x00, 0x00, 0x00, 0x00, 0x00, 0x00, 0x00, 0x00, 0x00,
  0x00, 0x00, 0x00, 0x00, 0x00, 0x00, 0x00, 0x00, 0x00, 0x00, 0x00, 0x00, 0x00, 0x00, 0x00, 0x00,
  0x00, 0x00, 0x00, 0x00, 0x00, 0x00, 0x00, 0x00, 0x00, 0x00, 0x00, 0x00, 0x00, 0x00, 0x00, 0x00,
  0x00, 0x00, 0x00, 0x00, 0x20, 0x00, 0x00, 0x00, 0xd9, 0x16, 0x65, 0x3c, 0x24, 0x5a, 0x4c, 0x3c,
  0x2a, 0x4a, 0x0a, 0x3c, 0x6d, 0x34, 0x19, 0x3c, 0x26, 0xd1, 0x46, 0x3c, 0x9d, 0xcf, 0x1a, 0x3c,
  0x80, 0xf3, 0x1d, 0x3c, 0x60, 0x69, 0x1c, 0x3c, 0x6b, 0xb4, 0x00, 0x3c, 0xf7, 0xae, 0x25, 0x3c,
  0x2a, 0x06, 0xfa, 0x3b, 0x57, 0x73, 0x10, 0x3c, 0x83, 0x79, 0xed, 0x3b, 0x50, 0xcc, 0x35, 0x3c,
  0x60, 0xb0, 0x0c, 0x3c, 0x87, 0x8e, 0x0b, 0x3c, 0xca, 0x16, 0xf5, 0x3b, 0x3c, 0x9e, 0x2a, 0x3c,
  0x1c, 0x50, 0x05, 0x3c, 0x0e, 0x2c, 0x83, 0x3c, 0xb8, 0xd4, 0x35, 0x3c, 0x52, 0x25, 0x9c, 0x3c,
  0xfa, 0x81, 0x01, 0x3c, 0xf1, 0xb5, 0x87, 0x3c, 0x2f, 0x0d, 0x21, 0x3c, 0x64, 0xfd, 0x69, 0x3c,
  0x58, 0x21, 0x45, 0x3c, 0xff, 0xa4, 0x1f, 0x3c, 0x9f, 0x0a, 0x25, 0x3c, 0x63, 0xdf, 0xf9, 0x3b,
  0x43, 0x56, 0x22, 0x3c, 0xa2, 0x4b, 0x3a, 0x3c, 0x11, 0x00, 0x00, 0x00, 0x74, 0x66, 0x6c, 0x2e,
  0x70, 0x73, 0x65, 0x75, 0x64, 0x6f, 0x5f, 0x71, 0x63, 0x6f, 0x6e, 0x73, 0x74, 0x00, 0x00, 0x00,
  0x02, 0x00, 0x00, 0x00, 0x20, 0x00, 0x00, 0x00, 0x20, 0x00, 0x00, 0x00, 0xa2, 0xfe, 0xff, 0xff,
  0x00, 0x00, 0x00, 0x01, 0x10, 0x00, 0x00, 0x00, 0x10, 0x00, 0x00, 0x00, 0x08, 0x00, 0x00, 0x00,
  0x1c, 0x00, 0x00, 0x00, 0x2c, 0xfe, 0xff, 0xff, 0x0f, 0x00, 0x00, 0x00, 0x61, 0x72, 0x69, 0x74,
  0x68, 0x2e, 0x63, 0x6f, 0x6e, 0x73, 0x74, 0x61, 0x6e, 0x74, 0x36, 0x00, 0x01, 0x00, 0x00, 0x00,
  0x10, 0x00, 0x00, 0x00, 0xda, 0xfe, 0xff, 0xff, 0x00, 0x00, 0x00, 0x01, 0x10, 0x00, 0x00, 0x00,
  0x10, 0x00, 0x00, 0x00, 0x07, 0x00, 0x00, 0x00, 0x1c, 0x00, 0x00, 0x00, 0x64, 0xfe, 0xff, 0xff,
  0x0f, 0x00, 0x00, 0x00, 0x61, 0x72, 0x69, 0x74, 0x68, 0x2e, 0x63, 0x6f, 0x6e, 0x73, 0x74, 0x61,
  0x6e, 0x74, 0x35, 0x00, 0x01, 0x00, 0x00, 0x00, 0x20, 0x00, 0x00, 0x00, 0x12, 0xff, 0xff, 0xff,
  0x00, 0x00, 0x00, 0x01, 0x10, 0x00, 0x00, 0x00, 0x10, 0x00, 0x00, 0x00, 0x06, 0x00, 0x00, 0x00,
  0x1c, 0x00, 0x00, 0x00, 0x9c, 0xfe, 0xff, 0xff, 0x0f, 0x00, 0x00, 0x00, 0x61, 0x72, 0x69, 0x74,
  0x68, 0x2e, 0x63, 0x6f, 0x6e, 0x73, 0x74, 0x61, 0x6e, 0x74, 0x34, 0x00, 0x01, 0x00, 0x00, 0x00,
  0x03, 0x00, 0x00, 0x00, 0x4a, 0xff, 0xff, 0xff, 0x00, 0x00, 0x00, 0x01, 0x10, 0x00, 0x00, 0x00,
  0x10, 0x00, 0x00, 0x00, 0x05, 0x00, 0x00, 0x00, 0x1c, 0x00, 0x00, 0x00, 0xd4, 0xfe, 0xff, 0xff,
  0x0f, 0x00, 0x00, 0x00, 0x61, 0x72, 0x69, 0x74, 0x68, 0x2e, 0x63, 0x6f, 0x6e, 0x73, 0x74, 0x61,
  0x6e, 0x74, 0x33, 0x00, 0x02, 0x00, 0x00, 0x00, 0x03, 0x00, 0x00, 0x00, 0x10, 0x00, 0x00, 0x00,
  0x86, 0xff, 0xff, 0xff, 0x00, 0x00, 0x00, 0x01, 0x10, 0x00, 0x00, 0x00, 0x10, 0x00, 0x00, 0x00,
  0x04, 0x00, 0x00, 0x00, 0x1c, 0x00, 0x00, 0x00, 0x10, 0xff, 0xff, 0xff, 0x0f, 0x00, 0x00, 0x00,
  0x61, 0x72, 0x69, 0x74, 0x68, 0x2e, 0x63, 0x6f, 0x6e, 0x73, 0x74, 0x61, 0x6e, 0x74, 0x32, 0x00,
  0x02, 0x00, 0x00, 0x00, 0x10, 0x00, 0x00, 0x00, 0x20, 0x00, 0x00, 0x00, 0xc2, 0xff, 0xff, 0xff,
  0x00, 0x00, 0x00, 0x01, 0x10, 0x00, 0x00, 0x00, 0x10, 0x00, 0x00, 0x00, 0x03, 0x00, 0x00, 0x00,
  0x1c, 0x00, 0x00, 0x00, 0x4c, 0xff, 0xff, 0xff, 0x0f, 0x00, 0x00, 0x00, 0x61, 0x72, 0x69, 0x74,
  0x68, 0x2e, 0x63, 0x6f, 0x6e, 0x73, 0x74, 0x61, 0x6e, 0x74, 0x31, 0x00, 0x02, 0x00, 0x00, 0x00,
  0x20, 0x00, 0x00, 0x00, 0x0d, 0x00, 0x00, 0x00, 0x00, 0x00, 0x16, 0x00, 0x18, 0x00, 0x14, 0x00,
  0x00, 0x00, 0x10, 0x00, 0x0c, 0x00, 0x08, 0x00, 0x00, 0x00, 0x00, 0x00, 0x00, 0x00, 0x07, 0x00,
  0x16, 0x00, 0x00, 0x00, 0x00, 0x00, 0x00, 0x01, 0x10, 0x00, 0x00, 0x00, 0x10, 0x00, 0x00, 0x00,
  0x02, 0x00, 0x00, 0x00, 0x1c, 0x00, 0x00, 0x00, 0xa0, 0xff, 0xff, 0xff, 0x0e, 0x00, 0x00, 0x00,
  0x61, 0x72, 0x69, 0x74, 0x68, 0x2e, 0x63, 0x6f, 0x6e, 0x73, 0x74, 0x61, 0x6e, 0x74, 0x00, 0x00,
  0x01, 0x00, 0x00, 0x00, 0x20, 0x00, 0x00, 0x00, 0x00, 0x00, 0x16, 0x00, 0x1c, 0x00, 0x18, 0x00,
  0x00, 0x00, 0x14, 0x00, 0x10, 0x00, 0x0c, 0x00, 0x00, 0x00, 0x00, 0x00, 0x08, 0x00, 0x07, 0x00,
  0x16, 0x00, 0x00, 0x00, 0x00, 0x00, 0x00, 0x01, 0x14, 0x00, 0x00, 0x00, 0x20, 0x00, 0x00, 0x00,
  0x20, 0x00, 0x00, 0x00, 0x01, 0x00, 0x00, 0x00, 0x3c, 0x00, 0x00, 0x00, 0x02, 0x00, 0x00, 0x00,
  0xff, 0xff, 0xff, 0xff, 0x0d, 0x00, 0x00, 0x00, 0x04, 0x00, 0x04, 0x00, 0x04, 0x00, 0x00, 0x00,
  0x1e, 0x00, 0x00, 0x00, 0x73, 0x65, 0x72, 0x76, 0x69, 0x6e, 0x67, 0x5f, 0x64, 0x65, 0x66, 0x61,
  0x75, 0x6c, 0x74, 0x5f, 0x6b, 0x65, 0x72, 0x61, 0x73, 0x5f, 0x74, 0x65, 0x6e, 0x73, 0x6f, 0x72,
  0x3a, 0x30, 0x00, 0x00, 0x02, 0x00, 0x00, 0x00, 0x01, 0x00, 0x00, 0x00, 0x0d, 0x00, 0x00, 0x00,
  0x02, 0x00, 0x00, 0x00, 0x2c, 0x00, 0x00, 0x00, 0x10, 0x00, 0x00, 0x00, 0x0c, 0x00, 0x0c, 0x00,
  0x0b, 0x00, 0x00, 0x00, 0x00, 0x00, 0x04, 0x00, 0x0c, 0x00, 0x00, 0x00, 0x19, 0x00, 0x00, 0x00,
  0x00, 0x00, 0x00, 0x19, 0x0c, 0x00, 0x10, 0x00, 0x0f, 0x00, 0x00, 0x00, 0x08, 0x00, 0x04, 0x00,
  0x0c, 0x00, 0x00, 0x00, 0x09, 0x00, 0x00, 0x00, 0x0c, 0x00, 0x00, 0x00, 0x00, 0x00, 0x00, 0x09
};
